#include "kws_data.h"

ai_handle ai_kws_data_weights_get(void)
{

  AI_ALIGNED(4)
  static const ai_u8 s_kws_weights[ 32388 ] = {
    0xd8, 0xe8, 0xcc, 0x3d, 0x2c, 0xc8, 0x03, 0xbe, 0x57, 0x71,
    0x21, 0x3e, 0xee, 0xa5, 0xec, 0xbd, 0x0c, 0x4b, 0xf6, 0x3c,
    0x71, 0xfa, 0xb5, 0xbc, 0x15, 0xee, 0x1b, 0xbe, 0xf9, 0x98,
    0x04, 0x3e, 0x18, 0x5c, 0x56, 0x3b, 0xa9, 0x99, 0xc5, 0x3d,
    0x07, 0x67, 0xb5, 0x3c, 0x3e, 0x0d, 0x2d, 0xbd, 0x74, 0x11,
    0x21, 0xbd, 0x8d, 0x97, 0xc9, 0x3c, 0x53, 0xa8, 0x95, 0x3d,
    0x54, 0x49, 0xe7, 0xbc, 0x4b, 0x4a, 0xa1, 0xbd, 0xf4, 0xfd,
    0x0d, 0x3e, 0x0b, 0x82, 0x1c, 0x3e, 0x1f, 0xa4, 0x35, 0x3e,
    0x5c, 0xcf, 0xba, 0x3c, 0x8d, 0x6d, 0x08, 0x3e, 0x62, 0xe6,
    0x66, 0xbd, 0x82, 0xaf, 0xd7, 0x3b, 0x22, 0x6c, 0x10, 0xbe,
    0x77, 0x6d, 0xf3, 0xbd, 0x36, 0x05, 0x1f, 0xbe, 0xcf, 0xa3,
    0xa4, 0xbd, 0x42, 0xa8, 0xb9, 0x3d, 0x4d, 0xdc, 0x2b, 0xbe,
    0xbd, 0xc8, 0x05, 0x3e, 0xc6, 0x38, 0xbe, 0xbc, 0xc8, 0x66,
    0x53, 0xbd, 0x19, 0x07, 0x33, 0xbe, 0x90, 0x80, 0x2f, 0xbe,
    0x3a, 0xea, 0x3f, 0xbd, 0xfc, 0xfc, 0xcb, 0x3d, 0x38, 0x48,
    0x36, 0xbd, 0x54, 0x95, 0x18, 0xbe, 0x8c, 0xb7, 0xf8, 0xbd,
    0x71, 0x23, 0x5b, 0xbc, 0x7c, 0x88, 0xf9, 0x3c, 0x22, 0x08,
    0x02, 0xbe, 0x9a, 0xb0, 0x50, 0xbc, 0x9f, 0x9c, 0x30, 0xbe,
    0xbd, 0xd5, 0xaa, 0x3d, 0xc8, 0x79, 0x11, 0xbe, 0x67, 0x2a,
    0x3b, 0xbe, 0x43, 0x94, 0x82, 0xbc, 0xb7, 0xb8, 0x97, 0xbd,
    0x35, 0x92, 0x29, 0x3d, 0xf5, 0x5a, 0x12, 0x3e, 0xba, 0x3f,
    0x4f, 0xbd, 0x94, 0x30, 0x98, 0xbd, 0x55, 0x2f, 0xae, 0x3d,
    0xf0, 0x41, 0x27, 0xbd, 0xf3, 0x93, 0x1e, 0x3e, 0xb2, 0xd3,
    0x29, 0xbe, 0xa3, 0x9c, 0x2c, 0xbe, 0x22, 0xc8, 0xfc, 0xbd,
    0x9b, 0x0f, 0xf4, 0x3c, 0x8a, 0x2d, 0x0c, 0xbe, 0x8f, 0x1d,
    0xf6, 0x3d, 0xec, 0x9a, 0x06, 0x3e, 0xc2, 0x0b, 0xee, 0x3d,
    0xcb, 0x51, 0xbc, 0x3d, 0xa0, 0x86, 0xa9, 0x3d, 0xff, 0x55,
    0x9b, 0x3d, 0x71, 0xe7, 0x09, 0x3a, 0xc3, 0x59, 0x1b, 0xbe,
    0x4e, 0x60, 0x19, 0x3e, 0x1c, 0x35, 0xe1, 0xbc, 0xb6, 0x6e,
    0x22, 0x3d, 0x6c, 0xee, 0xe1, 0x3d, 0xdc, 0x99, 0xc3, 0x3d,
    0x2c, 0xac, 0x02, 0x3e, 0x6c, 0x12, 0x16, 0x3e, 0xc7, 0xb8,
    0xff, 0x3c, 0x34, 0x8e, 0x9b, 0xbd, 0x17, 0x2e, 0x0e, 0x3b,
    0x0e, 0x3a, 0x27, 0x3e, 0x59, 0xe8, 0xf0, 0xbd, 0x1c, 0x68,
    0xd6, 0x3d, 0x96, 0x87, 0x22, 0xbe, 0x87, 0x22, 0x29, 0xbe,
    0x72, 0x1f, 0xff, 0x3d, 0x0e, 0xdc, 0xdf, 0x3d, 0x12, 0xdf,
    0x17, 0xbe, 0x43, 0x09, 0x1a, 0x3e, 0x7a, 0x21, 0xff, 0xbd,
    0xf5, 0x68, 0x18, 0x3e, 0xae, 0x2a, 0x93, 0xbd, 0x3e, 0x8e,
    0xe6, 0x3d, 0x99, 0x8f, 0xc7, 0xbd, 0x3e, 0x49, 0x61, 0x3a,
    0xe3, 0x73, 0x48, 0xbd, 0xb5, 0x5e, 0x79, 0xbd, 0x84, 0x51,
    0x08, 0x3e, 0x32, 0x05, 0x09, 0xbe, 0xc3, 0x82, 0x0a, 0xbe,
    0xee, 0x79, 0xb7, 0xbd, 0x5e, 0x1f, 0xda, 0x3d, 0x84, 0x02,
    0x62, 0x3d, 0xbb, 0xfd, 0x6f, 0x3b, 0xc0, 0xec, 0x38, 0x3e,
    0x03, 0xc5, 0x15, 0xbd, 0x79, 0x0d, 0x3d, 0xbe, 0xc4, 0x43,
    0x1c, 0xbe, 0xd9, 0x89, 0x09, 0x3e, 0x2a, 0x21, 0xe9, 0x3d,
    0xb4, 0xc7, 0x2c, 0x3e, 0x43, 0xb7, 0x50, 0xbb, 0x21, 0x54,
    0x44, 0xbe, 0xd1, 0x89, 0x5a, 0xbd, 0x10, 0x78, 0xec, 0xbd,
    0xcc, 0xa1, 0x4c, 0xbe, 0x5a, 0xd7, 0xff, 0xbd, 0x71, 0xfa,
    0x10, 0xbd, 0xe9, 0x8d, 0x2d, 0xbe, 0xe8, 0x29, 0x9b, 0xbd,
    0x75, 0xb6, 0x21, 0x3e, 0x83, 0x8e, 0x20, 0xbd, 0x98, 0x9e,
    0x00, 0x3e, 0xfe, 0xfd, 0x7e, 0x3c, 0xa7, 0x19, 0x17, 0x3d,
    0xfb, 0xa5, 0x2f, 0x3e, 0x96, 0x0b, 0x2a, 0xbe, 0x16, 0xb3,
    0xf4, 0xbd, 0x34, 0xfb, 0x83, 0xbc, 0x64, 0x62, 0x7b, 0xbd,
    0x7d, 0x47, 0x20, 0xbb, 0x47, 0xbd, 0xc4, 0x3d, 0x59, 0x0c,
    0x60, 0x3d, 0x96, 0xe5, 0xc9, 0x3d, 0xd5, 0x88, 0x0e, 0x3d,
    0xe0, 0x0b, 0xff, 0xbd, 0xde, 0x1c, 0xd3, 0xbd, 0x0a, 0x87,
    0x27, 0x3c, 0x94, 0xda, 0x00, 0xbe, 0x7e, 0x5b, 0x0a, 0x3d,
    0x84, 0xd3, 0xaa, 0xbd, 0x55, 0x50, 0xb9, 0x3d, 0xb8, 0x26,
    0x22, 0xbe, 0x34, 0xb0, 0x46, 0x3d, 0xe9, 0x38, 0x15, 0xbc,
    0xee, 0x8b, 0x3c, 0xbc, 0x00, 0x2f, 0xe4, 0xbc, 0x51, 0xd6,
    0xcb, 0xbc, 0x2b, 0x3f, 0x92, 0xbc, 0x3d, 0x07, 0x1d, 0xbc,
    0xf8, 0x8b, 0xca, 0xbc, 0x0d, 0x76, 0xa8, 0xbc, 0x94, 0xd6,
    0x87, 0xbc, 0x81, 0xc3, 0x13, 0xbd, 0x16, 0xcc, 0x8d, 0xbc,
    0x82, 0x18, 0x94, 0xbc, 0xdf, 0xf7, 0x91, 0xbc, 0xea, 0x4d,
    0x4b, 0xbc, 0xf8, 0x37, 0x19, 0xbc, 0x58, 0xcc, 0x7d, 0xbc,
    0xff, 0x40, 0x82, 0x3b, 0xc2, 0x7d, 0xc6, 0xbc, 0x79, 0x10,
    0xe1, 0x3b, 0x3e, 0xf7, 0xf8, 0x3b, 0xfa, 0x51, 0xd3, 0xbb,
    0x29, 0x65, 0x3d, 0x3c, 0x61, 0xf7, 0x70, 0x3b, 0xf3, 0xf0,
    0xc0, 0xbb, 0xa6, 0xcc, 0x51, 0xbc, 0x73, 0xf2, 0xa0, 0xbc,
    0x25, 0xe2, 0xa0, 0xbc, 0xae, 0x1a, 0x2b, 0x3c, 0x6d, 0x67,
    0x3f, 0x39, 0x13, 0xfe, 0xd5, 0x3b, 0xbf, 0xa6, 0x6b, 0xbc,
    0x6c, 0x7b, 0x34, 0x3c, 0xac, 0x19, 0x6e, 0xbc, 0x63, 0x29,
    0xf8, 0xbb, 0x3a, 0x63, 0x76, 0xbb, 0x47, 0x37, 0x66, 0x3c,
    0x8f, 0xbd, 0x9e, 0x3c, 0x04, 0x90, 0x16, 0xbd, 0x09, 0xb8,
    0xd8, 0x3b, 0x0c, 0x4b, 0x1c, 0x3c, 0x88, 0x50, 0xf0, 0x3a,
    0x11, 0xdc, 0x69, 0xbb, 0x68, 0xf7, 0x03, 0x3d, 0x68, 0xb5,
    0xcb, 0xbc, 0x8e, 0xee, 0x8f, 0x39, 0x60, 0x15, 0x15, 0x3c,
    0x33, 0xa7, 0x69, 0xbc, 0x92, 0xd2, 0x13, 0xbd, 0x8f, 0xe4,
    0x35, 0x3c, 0xcd, 0x36, 0x11, 0x3c, 0xfb, 0x7e, 0xe1, 0x3b,
    0x58, 0xc0, 0xb6, 0x3c, 0xb5, 0x0d, 0xb2, 0x3c, 0x62, 0xf6,
    0xf3, 0x3b, 0x9b, 0xca, 0x29, 0xbc, 0xb1, 0xfc, 0x57, 0xbc,
    0x7f, 0x60, 0xba, 0xbc, 0x80, 0x64, 0x7b, 0xbc, 0x1c, 0xf4,
    0x87, 0xbc, 0xc3, 0x35, 0xa2, 0xbb, 0x5e, 0x4e, 0x64, 0x3c,
    0x08, 0xdc, 0x56, 0x3c, 0x25, 0x84, 0xa7, 0xbb, 0xad, 0xba,
    0x22, 0xbc, 0x07, 0x36, 0x42, 0x3c, 0xaa, 0x5e, 0xa6, 0x3c,
    0x67, 0x56, 0x9f, 0xbc, 0xc3, 0xe6, 0x04, 0xbc, 0x62, 0x14,
    0x63, 0xbc, 0x2a, 0xb1, 0x48, 0xbc, 0xb3, 0x06, 0xcf, 0xbc,
    0x58, 0xa3, 0x66, 0x3b, 0x2d, 0xf3, 0x45, 0xbc, 0x83, 0x2d,
    0xd4, 0x3c, 0x6f, 0x00, 0xfc, 0x3c, 0xa2, 0x6f, 0x03, 0xbd,
    0xa0, 0x11, 0x80, 0x3c, 0xd8, 0xc9, 0xaa, 0x3c, 0xd1, 0x8c,
    0x9d, 0x3b, 0xff, 0xa3, 0x01, 0xbc, 0x60, 0x9d, 0x07, 0x3c,
    0x6a, 0x08, 0x2f, 0xbc, 0x77, 0xf4, 0x24, 0x3c, 0x81, 0x27,
    0x78, 0x3c, 0x83, 0x67, 0xe2, 0x3b, 0x70, 0x43, 0x82, 0x3c,
    0x4f, 0x14, 0xb6, 0xbc, 0xf3, 0xda, 0x0b, 0x3d, 0xe9, 0x65,
    0x99, 0x3c, 0x72, 0xc4, 0xe6, 0x3c, 0x6d, 0x11, 0x6a, 0x3c,
    0x5b, 0x14, 0x89, 0x3b, 0xfd, 0xc1, 0xd1, 0xba, 0x54, 0x2f,
    0xaf, 0xbc, 0x48, 0xb4, 0xb2, 0x3c, 0x5e, 0xa0, 0x17, 0xbc,
    0x87, 0x24, 0x74, 0x3c, 0x46, 0x69, 0x48, 0x3a, 0xe8, 0x69,
    0xc8, 0xbb, 0x6c, 0xf6, 0xb6, 0x3c, 0xc3, 0x3e, 0xb7, 0x3b,
    0x9f, 0x18, 0x6c, 0x3c, 0xb9, 0xd0, 0x89, 0x3c, 0x9b, 0xb2,
    0x84, 0xbb, 0x4f, 0xe4, 0x9d, 0xbc, 0x72, 0xb5, 0xcb, 0x3b,
    0xce, 0x2b, 0xd1, 0x3b, 0xf6, 0x6a, 0x53, 0x3c, 0xa9, 0x0c,
    0x82, 0xbc, 0xe3, 0xee, 0x41, 0x3c, 0xc0, 0x12, 0xba, 0x3c,
    0x6f, 0x75, 0x83, 0x3b, 0xf7, 0x0a, 0xc4, 0xba, 0x61, 0xff,
    0x64, 0xbd, 0x3d, 0x19, 0xfc, 0x3a, 0xc9, 0xaf, 0x31, 0xbb,
    0x3e, 0x31, 0x3a, 0x3d, 0x45, 0x9b, 0xe7, 0x3c, 0xe4, 0xab,
    0xe3, 0xbb, 0xa0, 0xe7, 0xda, 0x3c, 0x3b, 0x81, 0xfe, 0xb9,
    0x15, 0x49, 0x0c, 0x3d, 0x33, 0xa4, 0x8b, 0x3c, 0x31, 0x9f,
    0xe3, 0xbb, 0xd2, 0xac, 0xc6, 0x3b, 0xb3, 0x57, 0x9e, 0xbc,
    0x4f, 0x95, 0x81, 0xba, 0xe4, 0xab, 0xb8, 0x3c, 0x46, 0xcc,
    0x5d, 0x3c, 0xb8, 0x5f, 0x94, 0x3c, 0xe7, 0xd8, 0xa5, 0x3c,
    0xbf, 0x6b, 0x08, 0x3c, 0x51, 0x4c, 0x0a, 0x3c, 0x61, 0x46,
    0x56, 0xbc, 0xa0, 0x8d, 0xae, 0xbc, 0x48, 0x74, 0xe0, 0x3b,
    0x94, 0xd1, 0xe1, 0xbc, 0x9c, 0x40, 0x2a, 0xbb, 0x96, 0x85,
    0x0c, 0x3c, 0x5d, 0x53, 0xe1, 0x3c, 0xee, 0x19, 0xc7, 0xbb,
    0xce, 0x6d, 0xbc, 0x3c, 0x1a, 0xbc, 0x9b, 0x3b, 0x9f, 0x38,
    0xf3, 0x3c, 0x78, 0x77, 0x1c, 0xbb, 0x6f, 0xb7, 0xc4, 0xbc,
    0x5d, 0x58, 0x44, 0x3c, 0xcd, 0x2e, 0x72, 0xbc, 0x95, 0xe3,
    0x17, 0x3d, 0x75, 0xbf, 0x4a, 0xbb, 0xf1, 0xdc, 0x43, 0xbc,
    0x62, 0xb1, 0x09, 0xbb, 0xe1, 0xf7, 0x79, 0x3c, 0x87, 0x3f,
    0x04, 0xbc, 0xa4, 0xdd, 0x14, 0x3c, 0x51, 0x44, 0xbd, 0x3c,
    0x3d, 0x91, 0x36, 0xbc, 0x82, 0x5b, 0x69, 0x3c, 0xf3, 0x3d,
    0x3b, 0x3c, 0x24, 0xf2, 0xc0, 0x3c, 0x0f, 0x2a, 0x35, 0xbc,
    0x1c, 0x85, 0x47, 0x3c, 0xf1, 0x85, 0x36, 0xbc, 0x11, 0x56,
    0xd2, 0xb9, 0x8b, 0x41, 0x77, 0x3c, 0xcc, 0x61, 0x5a, 0x3c,
    0x50, 0x46, 0x34, 0x3b, 0x10, 0x7a, 0x8e, 0xbc, 0xf0, 0x44,
    0xb3, 0x3c, 0xd9, 0xb6, 0x89, 0xbc, 0xd6, 0x3d, 0x54, 0x3b,
    0xe1, 0x9f, 0x9e, 0x3c, 0x51, 0xcc, 0x85, 0xbb, 0x9a, 0xcb,
    0xa8, 0x3a, 0x6c, 0x82, 0x00, 0xbd, 0xcb, 0x65, 0xa1, 0xbc,
    0xd1, 0xa8, 0x64, 0xbc, 0x3c, 0xe3, 0x7d, 0x3c, 0xe3, 0x9a,
    0x02, 0x3d, 0x31, 0xa6, 0x11, 0xbc, 0x16, 0x00, 0x8d, 0xbc,
    0x3c, 0x3f, 0xad, 0xbc, 0x8a, 0x00, 0x07, 0xbd, 0xf5, 0x77,
    0x09, 0x3d, 0xab, 0x8f, 0xf6, 0x3c, 0xc7, 0x6e, 0x44, 0xbc,
    0x15, 0x1f, 0x1f, 0xbb, 0xb1, 0x83, 0xfd, 0x3c, 0x26, 0xfe,
    0xc2, 0x3c, 0x7a, 0x95, 0xa6, 0x3c, 0x3b, 0x0b, 0x09, 0xbb,
    0x26, 0xbf, 0xa5, 0x3b, 0x90, 0x3d, 0x66, 0xbc, 0xda, 0x63,
    0xc7, 0x3c, 0x41, 0x07, 0x72, 0x3c, 0xbf, 0x94, 0xb1, 0x3c,
    0xde, 0xa1, 0x8c, 0xbb, 0x33, 0x29, 0xa7, 0xbc, 0xc8, 0x55,
    0x64, 0x3b, 0x10, 0x3f, 0x8a, 0xbc, 0xf8, 0x1f, 0xb8, 0xbb,
    0xa9, 0xa4, 0x09, 0x3d, 0xd0, 0x46, 0x9c, 0xbc, 0xa1, 0xbf,
    0xd1, 0x3c, 0xfc, 0xd6, 0x07, 0x3d, 0x0f, 0x69, 0xae, 0x3c,
    0x58, 0xb9, 0x1f, 0xbd, 0x30, 0xdf, 0x89, 0xba, 0xa9, 0xea,
    0x94, 0x3c, 0x10, 0xb7, 0x3a, 0xbc, 0x44, 0xef, 0xc8, 0x3c,
    0xd3, 0xa8, 0x8b, 0xbc, 0xc7, 0xd5, 0x6a, 0xbc, 0xfc, 0x0a,
    0x98, 0xbc, 0xe0, 0x50, 0x0b, 0x3c, 0x9a, 0x92, 0xb6, 0xbc,
    0xcd, 0x95, 0x2f, 0xbc, 0x63, 0x1e, 0xd0, 0xbc, 0xb8, 0x5e,
    0x2d, 0xbd, 0xc6, 0xff, 0x86, 0xbc, 0x91, 0x94, 0xf8, 0x3c,
    0x20, 0x74, 0x5c, 0x38, 0x06, 0x03, 0x88, 0x3c, 0x72, 0x26,
    0x57, 0x3c, 0xd1, 0xa7, 0xa3, 0x3c, 0x18, 0x9e, 0xf8, 0xba,
    0x68, 0xf7, 0xae, 0xbc, 0x32, 0xa8, 0xcc, 0x3c, 0xdc, 0x54,
    0x95, 0xbb, 0x59, 0x65, 0x9d, 0xbb, 0xbe, 0xf5, 0x04, 0xbd,
    0xa3, 0x98, 0x2a, 0xbd, 0xb8, 0xb6, 0xec, 0xbc, 0xbe, 0xd8,
    0x6e, 0x3c, 0x68, 0xee, 0x12, 0xbc, 0xa9, 0x14, 0xf5, 0xbc,
    0x67, 0xf1, 0x5f, 0xbb, 0xc6, 0xa5, 0x89, 0x3c, 0x41, 0xed,
    0xba, 0x3c, 0x00, 0x41, 0x89, 0xbc, 0x82, 0x20, 0x3d, 0xbd,
    0xf1, 0x6b, 0x8f, 0x3c, 0xb9, 0xb6, 0x9d, 0xbc, 0x7a, 0xdd,
    0x6e, 0xbc, 0x12, 0x83, 0x74, 0x3c, 0xee, 0xd7, 0x2e, 0xbc,
    0xfd, 0x00, 0xe7, 0xbb, 0xf2, 0xd6, 0xb5, 0xbc, 0x7f, 0x9e,
    0x8c, 0xbc, 0xdc, 0xee, 0x91, 0x3b, 0x69, 0xeb, 0xc9, 0xbc,
    0x6b, 0xba, 0x7b, 0xbc, 0x0a, 0x55, 0x13, 0xbc, 0x8a, 0x6a,
    0xf0, 0xbc, 0xc0, 0x41, 0xde, 0xbc, 0x09, 0x70, 0x12, 0xbc,
    0x5c, 0xb1, 0xee, 0x3b, 0x3e, 0x60, 0x39, 0xbb, 0x70, 0xf6,
    0x3f, 0xbc, 0xc1, 0x4d, 0xbf, 0x3c, 0x8b, 0xaa, 0xe2, 0x3c,
    0x87, 0x83, 0xbe, 0x3c, 0xf2, 0x3e, 0x55, 0xbd, 0xa6, 0x28,
    0xba, 0x3c, 0x3d, 0x3b, 0x83, 0x3c, 0xd6, 0x5b, 0x98, 0x3c,
    0x45, 0x56, 0x93, 0xbc, 0xbe, 0x74, 0x34, 0xbc, 0xc9, 0x90,
    0xa1, 0x3b, 0x7a, 0xe0, 0x9f, 0xbc, 0xd0, 0x11, 0x88, 0xbb,
    0xda, 0x67, 0x8b, 0xbb, 0xf4, 0x16, 0x2c, 0xbb, 0x10, 0x9c,
    0x9a, 0xbb, 0x6c, 0xdd, 0x63, 0x3c, 0x5c, 0x57, 0xba, 0xbc,
    0x1c, 0xd3, 0xc4, 0xbc, 0xfb, 0x9c, 0xb6, 0x3b, 0x6f, 0xb4,
    0xa2, 0x3a, 0x77, 0xc4, 0x61, 0x3c, 0x2c, 0x2b, 0xbc, 0xbc,
    0x72, 0x7d, 0x90, 0xbc, 0x28, 0xce, 0x69, 0x3c, 0xd6, 0xfc,
    0xba, 0x3a, 0xcb, 0xbb, 0x3a, 0xbc, 0x12, 0xb2, 0xaf, 0x3b,
    0xfd, 0x5a, 0x16, 0x3c, 0xda, 0x12, 0x36, 0x3c, 0x54, 0x1b,
    0x39, 0xbb, 0xee, 0xeb, 0xa7, 0xbb, 0xe8, 0xa5, 0x83, 0x3c,
    0x1f, 0x44, 0x29, 0x3c, 0x1a, 0x95, 0xb0, 0x3c, 0x2e, 0x50,
    0xaf, 0xbb, 0xbd, 0x1b, 0xc0, 0xbc, 0x10, 0x9e, 0x82, 0xbc,
    0x1f, 0xc0, 0x0e, 0x3c, 0x20, 0x5a, 0xa9, 0xbb, 0x36, 0xda,
    0x25, 0x3c, 0xdd, 0x76, 0xb9, 0xbc, 0x22, 0xa5, 0x58, 0xbd,
    0x9d, 0x81, 0x54, 0x3c, 0x36, 0xbd, 0xd6, 0xba, 0x91, 0xd7,
    0xb6, 0xbb, 0x27, 0x37, 0xea, 0x3b, 0xb7, 0x28, 0x8c, 0xba,
    0x84, 0xa5, 0x94, 0x3b, 0x05, 0xd2, 0xfc, 0x3b, 0x88, 0xa4,
    0x53, 0x3b, 0x1f, 0xa8, 0x26, 0xb9, 0xfb, 0x15, 0x17, 0x3d,
    0x6b, 0xdd, 0x4e, 0xbc, 0x1f, 0xd4, 0xff, 0x3c, 0x89, 0x84,
    0x3a, 0x3c, 0xb9, 0x70, 0x49, 0x3b, 0x88, 0x4b, 0xc7, 0x3c,
    0xc5, 0x8a, 0x28, 0xbd, 0xc7, 0x16, 0x19, 0x3c, 0xde, 0x94,
    0x9a, 0x3c, 0xc2, 0xdc, 0x36, 0xbc, 0x14, 0xf5, 0xf6, 0x3b,
    0xac, 0x3e, 0xc6, 0xbb, 0x0b, 0x56, 0xb5, 0xbb, 0xd2, 0xb4,
    0x50, 0x39, 0xdd, 0x64, 0x6c, 0x3c, 0xa3, 0x98, 0x6c, 0xbc,
    0x2b, 0x81, 0x43, 0xbd, 0xa4, 0x99, 0x97, 0x3c, 0x08, 0x75,
    0x57, 0xbc, 0xd2, 0x81, 0x95, 0xbc, 0x8a, 0xe3, 0xbf, 0xbc,
    0x32, 0xd4, 0x20, 0xbd, 0xfc, 0xc8, 0x3b, 0xbb, 0x9d, 0xbf,
    0xcc, 0xbc, 0x05, 0xda, 0x3a, 0x3c, 0xe7, 0xb1, 0x0a, 0xbd,
    0x28, 0x4a, 0x2a, 0xba, 0xe0, 0x0f, 0x89, 0x3c, 0xfb, 0x59,
    0xf4, 0xbc, 0xe0, 0x0a, 0x3a, 0xbc, 0x40, 0x8a, 0xcb, 0xbc,
    0x5f, 0xb2, 0xb6, 0xbc, 0x7f, 0x48, 0xa9, 0xbc, 0x1d, 0x52,
    0x13, 0x3b, 0x7f, 0x87, 0x18, 0x3c, 0xae, 0xe0, 0xac, 0x3c,
    0x52, 0xd4, 0x97, 0xbc, 0x4f, 0xb8, 0xbe, 0x3c, 0xf6, 0x2e,
    0xc5, 0x3c, 0x94, 0x15, 0x86, 0xbc, 0x24, 0xff, 0xa2, 0xbb,
    0x9a, 0xc3, 0xfc, 0xbc, 0xc7, 0x94, 0x99, 0xbc, 0x1c, 0x40,
    0x7e, 0xbb, 0xda, 0x24, 0x2b, 0xbc, 0x6b, 0x0e, 0xdd, 0xbb,
    0xeb, 0xfe, 0x5d, 0x3b, 0xbb, 0x04, 0x18, 0x3d, 0x48, 0x0d,
    0xc5, 0xbc, 0xf0, 0x29, 0x9e, 0xbc, 0xf8, 0xf0, 0x31, 0xbc,
    0x8d, 0xff, 0x7b, 0x3b, 0xd5, 0xa7, 0xe4, 0x3b, 0x09, 0x2d,
    0x3b, 0x3c, 0x9b, 0x76, 0xbb, 0x3b, 0x1b, 0x54, 0xbf, 0xbb,
    0x00, 0x4c, 0x8f, 0xbc, 0xed, 0x92, 0xcf, 0x3b, 0x3d, 0x9d,
    0x17, 0xbb, 0x79, 0x22, 0xf2, 0xbc, 0xd2, 0x06, 0x4e, 0x3d,
    0xc5, 0x9e, 0xa2, 0x3c, 0x73, 0x32, 0x63, 0x3c, 0x58, 0xa0,
    0x1e, 0x3d, 0x66, 0xee, 0x02, 0x3d, 0x6f, 0x88, 0x06, 0x3c,
    0x7d, 0x74, 0xcf, 0xbc, 0xa6, 0x42, 0x63, 0x3b, 0x6f, 0x9d,
    0xaa, 0x3b, 0x91, 0x56, 0xcd, 0xbb, 0xda, 0xeb, 0xed, 0x3b,
    0xba, 0xf2, 0xb2, 0xbc, 0x12, 0x92, 0x9b, 0x3c, 0x3d, 0x8c,
    0x0b, 0x3d, 0xe2, 0xe0, 0x2e, 0x3d, 0x92, 0x06, 0x1e, 0xbd,
    0xc8, 0xfb, 0x21, 0x3c, 0x24, 0xa0, 0xe6, 0x3c, 0xbb, 0xab,
    0x18, 0x3c, 0x50, 0xd8, 0xad, 0x3c, 0xd7, 0x8d, 0x85, 0xbc,
    0x66, 0x9b, 0x7e, 0x3c, 0xf3, 0x45, 0x50, 0xbd, 0xf7, 0xe3,
    0x29, 0x3d, 0x52, 0x33, 0xd6, 0xbb, 0x0b, 0x50, 0xf8, 0x3c,
    0x33, 0x01, 0xc0, 0x3c, 0xfb, 0x95, 0x66, 0x3c, 0xd0, 0xa0,
    0xd4, 0x3c, 0x86, 0x42, 0x72, 0x3c, 0x70, 0xdb, 0x0c, 0xbd,
    0x6a, 0x75, 0xac, 0x3a, 0x1b, 0x2e, 0x82, 0x3c, 0x66, 0xb0,
    0x67, 0x3d, 0xbe, 0x4c, 0x72, 0x3b, 0xc4, 0xdf, 0x04, 0x3d,
    0xd6, 0x5d, 0x08, 0x3d, 0xf7, 0x39, 0x0a, 0xbd, 0x4f, 0x26,
    0x1c, 0xbd, 0xbd, 0x4c, 0x89, 0x3b, 0xb4, 0x63, 0x3d, 0x3b,
    0x78, 0xb4, 0x9b, 0x3c, 0xe0, 0xaf, 0x5d, 0x3c, 0x0d, 0xfa,
    0x38, 0xbc, 0x74, 0xf9, 0x74, 0x3c, 0x59, 0xf2, 0x1d, 0x3d,
    0x55, 0x78, 0x80, 0xbc, 0xda, 0x29, 0x8c, 0xbc, 0x93, 0x1d,
    0xcb, 0x3c, 0xea, 0x11, 0xb9, 0x3c, 0xf1, 0x69, 0x37, 0x3d,
    0x22, 0x23, 0x43, 0xbc, 0xcc, 0xc6, 0xdd, 0x3b, 0x7b, 0xa8,
    0x6f, 0xbc, 0x60, 0x70, 0x45, 0xbd, 0xe3, 0xcf, 0x1f, 0x3c,
    0xdf, 0xea, 0xdf, 0x3c, 0x8f, 0xfe, 0x5b, 0x3c, 0xf7, 0x25,
    0x65, 0x3c, 0x66, 0x59, 0x94, 0xbc, 0x31, 0xc7, 0xcc, 0xbb,
    0xbb, 0x1f, 0x6b, 0xbc, 0xe9, 0x36, 0xd1, 0x3b, 0x30, 0x37,
    0x97, 0x3c, 0x7d, 0x49, 0x4b, 0xbc, 0xa2, 0x31, 0xb4, 0xba,
    0x9e, 0xfa, 0x84, 0x3c, 0xa4, 0xa2, 0x09, 0xbd, 0x4b, 0x32,
    0xcd, 0x3c, 0x01, 0xb0, 0x81, 0xbc, 0xcb, 0x02, 0xbe, 0x3c,
    0x35, 0xdc, 0x5d, 0x3c, 0xed, 0xab, 0x9d, 0xbc, 0x57, 0x32,
    0x46, 0x3c, 0xec, 0x41, 0xb2, 0xbb, 0x37, 0x80, 0x31, 0xbd,
    0x75, 0xe4, 0x09, 0xbc, 0x62, 0xea, 0x1d, 0xbc, 0x3e, 0x0a,
    0x9a, 0x3c, 0x3d, 0x2f, 0xbe, 0x3c, 0x14, 0x7f, 0x01, 0x3a,
    0x10, 0x6b, 0x06, 0x3d, 0x47, 0x23, 0x7a, 0xbc, 0x8f, 0xf8,
    0x2f, 0xbc, 0x6f, 0xce, 0x0e, 0x3c, 0x2f, 0xa3, 0xd5, 0xba,
    0xe2, 0xc1, 0xd3, 0x3c, 0x09, 0xf9, 0x1b, 0xb7, 0xa3, 0x03,
    0x9f, 0x3c, 0xf2, 0x22, 0x58, 0x3c, 0xc7, 0xd4, 0x3f, 0x3c,
    0x0f, 0x4d, 0xd6, 0xbc, 0x69, 0x68, 0x80, 0x3b, 0x81, 0x62,
    0xe5, 0xbc, 0x6f, 0x9b, 0xae, 0xbc, 0x3e, 0x50, 0x51, 0xbc,
    0x50, 0xa5, 0xaa, 0xbc, 0x6a, 0x02, 0xd6, 0xbc, 0xeb, 0x92,
    0xaf, 0xbc, 0x84, 0x24, 0x2b, 0x3c, 0x48, 0x7b, 0xab, 0x3b,
    0x2b, 0x80, 0xbe, 0xbb, 0x83, 0x6f, 0x08, 0xbd, 0xed, 0x53,
    0xa4, 0x3c, 0x94, 0xc4, 0x28, 0x3c, 0x4a, 0xcb, 0x38, 0xbb,
    0x99, 0x85, 0x18, 0x3d, 0x19, 0xda, 0xa3, 0x3b, 0xf2, 0xd9,
    0xc7, 0x3c, 0x06, 0xca, 0x42, 0x3c, 0x05, 0x66, 0x2d, 0x3b,
    0x76, 0x92, 0x86, 0xbc, 0x4f, 0xe3, 0xe6, 0xbb, 0x83, 0xde,
    0x9f, 0xbc, 0xd7, 0xe7, 0xb3, 0xbc, 0x36, 0xb7, 0x28, 0xbd,
    0x74, 0x4b, 0x81, 0x3c, 0x1c, 0x76, 0xbb, 0xbb, 0x70, 0x51,
    0x39, 0xbb, 0xe2, 0x48, 0xef, 0xba, 0x3c, 0x53, 0x7c, 0xbc,
    0x5b, 0xd1, 0x1f, 0xbd, 0x92, 0x7d, 0x4e, 0x3b, 0x95, 0xec,
    0x9e, 0xbc, 0xf6, 0x71, 0xc7, 0xbc, 0xac, 0xb2, 0x94, 0xbc,
    0x32, 0x27, 0x00, 0x3b, 0xcc, 0x85, 0x25, 0xbc, 0x5c, 0xaf,
    0x3f, 0x3c, 0x34, 0x83, 0x07, 0xba, 0xf1, 0xa7, 0x8d, 0x3c,
    0xf5, 0x65, 0xfe, 0xbb, 0x43, 0x0c, 0x3b, 0xbb, 0x27, 0xc6,
    0xab, 0x3c, 0x37, 0xf0, 0xd6, 0xbc, 0x53, 0x76, 0xbf, 0xba,
    0x4c, 0x48, 0x5d, 0x3c, 0x1a, 0x0c, 0xd1, 0xbb, 0xea, 0x7f,
    0x9e, 0x3b, 0x5b, 0xd0, 0xce, 0xba, 0x28, 0x81, 0x07, 0xbd,
    0xdd, 0x74, 0x6d, 0xbb, 0xbc, 0xa8, 0x77, 0xbc, 0x68, 0x0f,
    0x93, 0x3b, 0x20, 0x29, 0x6a, 0xbc, 0xaf, 0x84, 0x98, 0xbc,
    0xe7, 0x9f, 0x85, 0xbc, 0xd2, 0x0a, 0x50, 0xbc, 0x96, 0x0b,
    0x3a, 0xbc, 0xa5, 0x85, 0x15, 0xbd, 0x5c, 0x3f, 0x27, 0xbc,
    0xf1, 0x23, 0x59, 0xbc, 0x96, 0x8f, 0x3e, 0x3c, 0xa3, 0x90,
    0x44, 0xbc, 0x34, 0x74, 0xe7, 0x3b, 0x17, 0x70, 0x62, 0xba,
    0xd3, 0x1b, 0x08, 0xbc, 0xd1, 0xe1, 0x02, 0xbd, 0x73, 0xa1,
    0x83, 0xbc, 0xad, 0x0c, 0xd2, 0x3b, 0xb0, 0xf9, 0xb5, 0x3c,
    0x6f, 0xff, 0xa0, 0x3c, 0xa7, 0xa0, 0x08, 0xbd, 0x86, 0x62,
    0x87, 0xbb, 0x3b, 0xe8, 0xa6, 0x3c, 0x7a, 0x3d, 0xa0, 0xbc,
    0x1e, 0x72, 0xd0, 0x3b, 0x56, 0xd9, 0x6a, 0xbc, 0x44, 0xbe,
    0x00, 0x3c, 0x2b, 0xc8, 0x1d, 0x3b, 0xbe, 0x3e, 0x25, 0x3a,
    0x15, 0xc8, 0x67, 0x3c, 0xa9, 0x49, 0x77, 0x3c, 0x46, 0xc5,
    0x22, 0xbc, 0x5c, 0x6a, 0xce, 0x3b, 0xaf, 0xa6, 0xeb, 0xbb,
    0x8d, 0x45, 0x22, 0xbc, 0x43, 0x4c, 0x6c, 0xbc, 0xbc, 0xd5,
    0x92, 0x3c, 0x00, 0x76, 0x77, 0x3b, 0x6f, 0xf0, 0x2c, 0xbd,
    0x33, 0x94, 0xea, 0x3c, 0xd7, 0x48, 0x32, 0x3c, 0xf3, 0x4d,
    0xa0, 0xba, 0xd7, 0x65, 0xb0, 0x3a, 0x26, 0x30, 0x93, 0x3b,
    0x8e, 0x12, 0x94, 0xbc, 0x70, 0x62, 0x1a, 0xbc, 0x50, 0x7b,
    0x5a, 0xbc, 0xe4, 0xcb, 0xaa, 0x3b, 0x51, 0x10, 0x59, 0x3a,
    0xcd, 0x4b, 0x86, 0xbc, 0x62, 0x1c, 0xbf, 0xbb, 0xaa, 0x05,
    0x38, 0x3b, 0xa0, 0xd4, 0x2f, 0xbc, 0x55, 0x79, 0x74, 0x3c,
    0x49, 0x1e, 0x93, 0x3b, 0xe2, 0x1e, 0x9b, 0xbc, 0x32, 0xb6,
    0x32, 0xbd, 0x83, 0x4b, 0xf0, 0x3c, 0x3f, 0x06, 0xc9, 0x3b,
    0xf2, 0xee, 0x39, 0x3d, 0xb0, 0x62, 0x98, 0x3c, 0x61, 0x34,
    0xce, 0x3c, 0x44, 0xfa, 0xe9, 0xbc, 0xf3, 0x97, 0xd4, 0x3c,
    0xb7, 0xf8, 0x2e, 0x3c, 0xd1, 0x9a, 0x02, 0xbd, 0x85, 0x57,
    0x44, 0xbb, 0x85, 0x1d, 0x53, 0xbb, 0x3f, 0x65, 0x50, 0xbc,
    0xb6, 0x95, 0xbf, 0xbc, 0xdf, 0x48, 0x1f, 0x3a, 0xde, 0xee,
    0x72, 0x3c, 0x19, 0x8a, 0xb7, 0xbc, 0x28, 0xa0, 0xb6, 0x3b,
    0x73, 0xf2, 0x93, 0xbc, 0x41, 0x9b, 0x90, 0x3c, 0xf5, 0x55,
    0x85, 0xbc, 0x30, 0x52, 0x94, 0xbc, 0x77, 0x40, 0xc8, 0x3b,
    0xb1, 0xc6, 0x3b, 0xbc, 0x6d, 0x29, 0xce, 0x3b, 0x38, 0x20,
    0x27, 0xbb, 0xe1, 0xbf, 0x92, 0x3a, 0x24, 0xb2, 0xd6, 0xbc,
    0xd4, 0xd1, 0x0d, 0x3c, 0x29, 0xdd, 0xbc, 0xbb, 0x6b, 0x21,
    0x19, 0xbb, 0x87, 0x91, 0x92, 0x3c, 0x40, 0xdd, 0x26, 0x3c,
    0x6d, 0xb6, 0x49, 0x3c, 0x4e, 0x46, 0x74, 0x3c, 0x2c, 0xe7,
    0x65, 0x3c, 0x55, 0xdd, 0x78, 0xbb, 0xbe, 0x8f, 0xbf, 0x3b,
    0x4d, 0x2f, 0x08, 0xbd, 0xf8, 0x3a, 0x3b, 0xbc, 0x9c, 0xa9,
    0x31, 0x3a, 0xc6, 0x94, 0x36, 0xbc, 0x0f, 0xe8, 0xe5, 0xbc,
    0x0f, 0x27, 0x8a, 0xbc, 0x74, 0x74, 0x71, 0xbc, 0xb9, 0x1c,
    0x14, 0xbd, 0xde, 0x08, 0x86, 0xbc, 0x83, 0xb9, 0xe1, 0xbb,
    0x1e, 0xc6, 0xfe, 0xbc, 0x34, 0xbc, 0xbe, 0x3c, 0xa6, 0xb4,
    0xda, 0x3c, 0xf6, 0xa7, 0x38, 0xbc, 0x58, 0x89, 0x7b, 0x3c,
    0xe0, 0x2a, 0x9b, 0xbc, 0x2d, 0x40, 0x15, 0xbd, 0x28, 0x2c,
    0x80, 0x3c, 0x71, 0xfa, 0x88, 0x3b, 0x29, 0x46, 0x09, 0x3d,
    0x1b, 0xe3, 0xba, 0x3c, 0xbb, 0x70, 0xf0, 0x3c, 0xfe, 0x1b,
    0x09, 0x3d, 0x53, 0x22, 0xf2, 0x3b, 0xb6, 0x16, 0xbb, 0x3a,
    0x6f, 0x04, 0x59, 0xbc, 0xf7, 0x7e, 0x2b, 0xbc, 0x27, 0x52,
    0x25, 0xbc, 0x55, 0xd7, 0xad, 0x3c, 0xc1, 0x1b, 0xa6, 0x3b,
    0xda, 0xb5, 0xd5, 0x3b, 0x99, 0xec, 0x40, 0x3c, 0x8a, 0xcc,
    0x62, 0xbc, 0x75, 0x60, 0xb3, 0x3c, 0x09, 0xbb, 0x2b, 0x3c,
    0x75, 0x56, 0x88, 0x3c, 0x4e, 0x51, 0x97, 0x3c, 0x81, 0x69,
    0x57, 0x3c, 0x6d, 0xd8, 0x5c, 0x3c, 0xa8, 0x38, 0x97, 0x3c,
    0x82, 0xfa, 0x54, 0xba, 0x83, 0x25, 0x1d, 0x3b, 0x25, 0x3e,
    0x22, 0xbd, 0xbf, 0xdf, 0xc4, 0x3c, 0x73, 0xf9, 0xf4, 0xbc,
    0x77, 0x7c, 0xb8, 0x3c, 0x56, 0xff, 0xe1, 0x3c, 0x7f, 0x29,
    0x29, 0x3d, 0x05, 0x29, 0x8f, 0xbc, 0x58, 0xa3, 0x21, 0x3d,
    0x32, 0xb7, 0x8d, 0x3c, 0x21, 0x43, 0x6b, 0xbd, 0xee, 0x1b,
    0xf9, 0x3c, 0x4b, 0xdf, 0x52, 0xbc, 0x7f, 0xf6, 0xa4, 0xbc,
    0x2c, 0x1b, 0x05, 0x3d, 0x99, 0x0a, 0x70, 0xbc, 0x93, 0x57,
    0x44, 0xbc, 0x3d, 0xe4, 0x38, 0xbd, 0xb2, 0x01, 0xc0, 0x3a,
    0x33, 0x75, 0x51, 0xbb, 0x72, 0xc9, 0x23, 0xbb, 0x82, 0x3d,
    0x4d, 0x3c, 0xc6, 0x03, 0x4f, 0xbb, 0xd8, 0x70, 0xdd, 0x3b,
    0xa3, 0xb6, 0x8c, 0x3b, 0x93, 0xe7, 0xe6, 0x3a, 0x49, 0xca,
    0x86, 0xbc, 0x2c, 0xca, 0x17, 0x3d, 0xf1, 0xf3, 0x1a, 0x3d,
    0x1c, 0xbc, 0xe7, 0x3b, 0xb5, 0xe6, 0xfd, 0x3b, 0x1d, 0x0f,
    0x1b, 0x3c, 0xcd, 0x2d, 0xe9, 0xbc, 0xf6, 0xc0, 0xda, 0xbc,
    0x17, 0x9a, 0xac, 0xbc, 0x4d, 0xfc, 0xd9, 0xbb, 0x4b, 0x35,
    0x8a, 0x3c, 0x81, 0x87, 0x42, 0xbb, 0x66, 0xc5, 0x80, 0xbb,
    0x6e, 0x9c, 0xb1, 0x3b, 0x71, 0x34, 0x46, 0x3c, 0x62, 0x79,
    0xee, 0x39, 0x54, 0xfc, 0xf0, 0x38, 0x22, 0x18, 0x15, 0x3c,
    0xed, 0x0d, 0x1a, 0xbc, 0x9d, 0x66, 0x7d, 0xbc, 0xe2, 0xd9,
    0x1a, 0xbc, 0x26, 0xf2, 0x95, 0x3c, 0xb2, 0xcc, 0xed, 0xba,
    0xfb, 0x3e, 0x23, 0xbd, 0x10, 0x80, 0x89, 0x3b, 0x58, 0xd7,
    0x5f, 0x3c, 0xcd, 0xcc, 0x94, 0x3c, 0xd3, 0x25, 0xa3, 0xbc,
    0x1b, 0x5a, 0xb2, 0x3c, 0xcc, 0xad, 0x21, 0x3d, 0x6c, 0xb6,
    0x25, 0xbc, 0x38, 0x10, 0xbf, 0xbb, 0xa7, 0x5f, 0xbd, 0x3b,
    0x8f, 0x4d, 0x13, 0x3c, 0x1e, 0xe9, 0xfb, 0xba, 0xd6, 0x05,
    0x6c, 0x3c, 0x06, 0x9e, 0x8f, 0xbc, 0xc1, 0x3b, 0x77, 0x3b,
    0xf7, 0x5e, 0x8b, 0x3c, 0x38, 0x5e, 0x5a, 0x3c, 0x3e, 0x99,
    0x03, 0x3c, 0x66, 0x9c, 0xf5, 0xbc, 0xff, 0x78, 0xdb, 0x3c,
    0x3b, 0xec, 0x20, 0x3b, 0x5d, 0x94, 0x0e, 0x3d, 0xb1, 0xc1,
    0x2b, 0x3d, 0xd4, 0xa1, 0xbd, 0x3a, 0xfd, 0x9c, 0x4c, 0x3c,
    0x73, 0x10, 0xa3, 0xbb, 0xf3, 0xcc, 0xb0, 0x3c, 0x22, 0x60,
    0xf5, 0x3b, 0xa8, 0x55, 0x16, 0xbd, 0xa6, 0xa2, 0x9f, 0xbc,
    0x10, 0x91, 0x75, 0xbc, 0x3a, 0x5f, 0x36, 0x3c, 0x94, 0xd2,
    0x19, 0x3d, 0x52, 0x5a, 0xbf, 0xbc, 0xe4, 0x80, 0xcc, 0x3c,
    0x15, 0x8b, 0x28, 0x3c, 0x4d, 0xbc, 0xfd, 0xbb, 0xaf, 0x55,
    0xc3, 0x3c, 0xdd, 0x35, 0xa5, 0x3b, 0xc0, 0x16, 0x9b, 0x3b,
    0xbb, 0xb3, 0xed, 0x3b, 0x53, 0xfb, 0xe8, 0x3c, 0x82, 0x71,
    0xd7, 0xbb, 0x39, 0xce, 0x8a, 0xbc, 0xbf, 0x77, 0xec, 0xbc,
    0xb7, 0x18, 0xd5, 0xbc, 0xb7, 0xf1, 0xa8, 0x3b, 0xa0, 0x52,
    0xbc, 0xbc, 0xb5, 0x95, 0x9d, 0x3c, 0x74, 0x26, 0x91, 0xbc,
    0xfe, 0xb0, 0xc3, 0xbc, 0xb6, 0x43, 0x4a, 0xbc, 0x08, 0xa0,
    0xc4, 0x3b, 0xc7, 0xfd, 0x89, 0x3c, 0xe5, 0x02, 0x98, 0xbb,
    0xeb, 0x12, 0x87, 0x3c, 0xfd, 0xed, 0x80, 0x39, 0xf7, 0xec,
    0xad, 0x3b, 0x28, 0xa4, 0x8e, 0xbc, 0xb6, 0x58, 0xc8, 0xbc,
    0x45, 0x11, 0xd0, 0xbb, 0xf0, 0xa4, 0x98, 0xbc, 0x80, 0x25,
    0xbb, 0xbb, 0xb7, 0x1f, 0x14, 0x3c, 0x7a, 0xb1, 0x54, 0x3c,
    0xa9, 0x79, 0x56, 0xbc, 0xed, 0x89, 0xdb, 0x3a, 0x85, 0x1d,
    0xd1, 0xbc, 0x9d, 0xca, 0xa1, 0xbc, 0xce, 0x61, 0xad, 0x3b,
    0xc8, 0x09, 0xa8, 0x3c, 0x7e, 0x91, 0x10, 0x3b, 0xd9, 0x8f,
    0xa6, 0xbc, 0x3e, 0x78, 0xbf, 0x3a, 0x01, 0xb4, 0x3b, 0x3c,
    0xa8, 0x0f, 0x88, 0xbc, 0x78, 0x27, 0x35, 0xbb, 0x55, 0x1a,
    0x33, 0xbc, 0x18, 0x22, 0xc1, 0xbc, 0x0e, 0x69, 0x3f, 0xbd,
    0x5b, 0xbe, 0xa3, 0xbc, 0x29, 0x99, 0xf5, 0x3a, 0x0a, 0x21,
    0x39, 0x3d, 0xca, 0x20, 0x0f, 0xbd, 0xf1, 0xbf, 0x8a, 0xbb,
    0x52, 0x13, 0x42, 0xbc, 0x9e, 0xd0, 0xae, 0x3c, 0x6b, 0x00,
    0x4a, 0x3c, 0x52, 0x95, 0x0e, 0xbd, 0xae, 0x0f, 0x85, 0x3b,
    0x7d, 0x36, 0xe2, 0x3a, 0x93, 0x00, 0x33, 0xbb, 0x12, 0xee,
    0x99, 0xbc, 0x85, 0xb4, 0xec, 0xbb, 0xc5, 0x96, 0xc1, 0xbb,
    0x1d, 0x9b, 0x99, 0xbc, 0x19, 0xfb, 0x95, 0xbc, 0x21, 0x20,
    0xbf, 0xba, 0xe4, 0x33, 0x39, 0x3c, 0x1c, 0xc8, 0x89, 0xbc,
    0x38, 0xb0, 0x2a, 0x3d, 0x92, 0xcf, 0x24, 0xbc, 0x55, 0x4f,
    0x96, 0x3b, 0x0d, 0x23, 0x5b, 0xbd, 0xbe, 0x4f, 0x54, 0x3c,
    0x51, 0xb5, 0x18, 0x3c, 0xe5, 0x05, 0x2a, 0xbc, 0x74, 0xd3,
    0x1a, 0xbc, 0x2c, 0x77, 0x5c, 0xbc, 0x62, 0x5f, 0x3d, 0xbc,
    0x86, 0xfa, 0x1b, 0xbd, 0x5f, 0xe0, 0x89, 0xbc, 0x1f, 0x20,
    0x93, 0xbb, 0x6d, 0x15, 0x6e, 0x3c, 0x2e, 0x83, 0x08, 0xbc,
    0x36, 0x78, 0x5e, 0xbd, 0x1f, 0x38, 0x98, 0xbc, 0x23, 0xca,
    0xdc, 0xbb, 0x3d, 0xdd, 0x07, 0xbd, 0x68, 0x4d, 0xc6, 0xbc,
    0x62, 0x74, 0x06, 0x3b, 0x64, 0xb4, 0xa9, 0x3c, 0x28, 0x2c,
    0x04, 0x3c, 0xfd, 0xcf, 0x46, 0xbb, 0x87, 0xc3, 0x76, 0x3c,
    0x11, 0x20, 0x2b, 0x3c, 0xc0, 0x17, 0xcc, 0x3c, 0x65, 0xa0,
    0x23, 0x3c, 0x14, 0x39, 0x17, 0xbd, 0x19, 0xc1, 0xf2, 0xbb,
    0xe7, 0xaf, 0x6e, 0x3b, 0x18, 0x66, 0x4d, 0xbc, 0x8a, 0x3a,
    0x78, 0xbc, 0x7c, 0xe0, 0x60, 0x3c, 0xac, 0x89, 0xa7, 0xbc,
    0xf2, 0xbb, 0xee, 0x3b, 0xe7, 0x92, 0x3d, 0xbc, 0x2a, 0xdd,
    0x18, 0xbb, 0xc4, 0xe8, 0x3d, 0xbc, 0xf7, 0x5a, 0x8a, 0xbb,
    0xb3, 0x4b, 0xd6, 0xbb, 0xda, 0x9a, 0xe6, 0x3b, 0x06, 0x92,
    0x7d, 0xbc, 0x6a, 0x54, 0x2b, 0xbc, 0x0f, 0x60, 0xc0, 0x3b,
    0x6f, 0x8c, 0xdc, 0xbb, 0xbc, 0xb2, 0xab, 0x3c, 0xe6, 0x6b,
    0x94, 0xbc, 0xcf, 0x54, 0x4a, 0x3c, 0x1e, 0x84, 0x74, 0xbc,
    0xd8, 0x22, 0xf5, 0x3a, 0x5d, 0x50, 0x97, 0x3b, 0xe4, 0x02,
    0x85, 0x3c, 0x06, 0xa4, 0x9a, 0xbc, 0xce, 0xb0, 0x21, 0xbc,
    0x52, 0x89, 0x29, 0x3c, 0xe5, 0x29, 0xf8, 0x38, 0x64, 0xc5,
    0x25, 0x3c, 0x4f, 0x3b, 0x89, 0xbc, 0xb2, 0xcd, 0x6f, 0x3c,
    0xb0, 0x5c, 0xca, 0xbc, 0x56, 0x31, 0xb9, 0xbc, 0x9f, 0x14,
    0x2b, 0xbb, 0xb3, 0x0e, 0x83, 0xbc, 0xbd, 0xf6, 0x14, 0xbc,
    0x21, 0xda, 0x0c, 0x3c, 0xba, 0x69, 0xa7, 0xbc, 0x0f, 0x26,
    0x8b, 0x3c, 0xf9, 0x1e, 0xfb, 0x3b, 0x64, 0x52, 0x78, 0xbc,
    0x3a, 0x04, 0x17, 0xbc, 0x07, 0x24, 0x96, 0x3c, 0xc6, 0x8a,
    0x8a, 0x3c, 0x3f, 0xae, 0xea, 0xbc, 0x0b, 0x0d, 0xe7, 0xbb,
    0xdc, 0xdf, 0x89, 0xbb, 0x25, 0x95, 0x56, 0xbc, 0xfc, 0x9f,
    0xca, 0x3c, 0x60, 0x20, 0x44, 0x3b, 0x9e, 0x35, 0x3f, 0x3c,
    0xf8, 0x7d, 0xf2, 0xbb, 0x85, 0x78, 0xfa, 0x3c, 0xd8, 0x58,
    0x16, 0xbc, 0x36, 0x36, 0x3f, 0x3c, 0xf6, 0x41, 0xbf, 0x3c,
    0x05, 0xc1, 0x7a, 0xbc, 0xd7, 0x64, 0xc0, 0xbb, 0xeb, 0x9b,
    0xd1, 0x3c, 0x49, 0x5f, 0x9b, 0xbb, 0x9b, 0xe1, 0x1e, 0x3c,
    0xfd, 0xa3, 0xbc, 0x39, 0xdc, 0xd1, 0x6d, 0xbb, 0x44, 0x94,
    0xcd, 0xbb, 0xda, 0xad, 0x06, 0x3b, 0xa9, 0xc9, 0x1c, 0x3c,
    0x00, 0xad, 0xe0, 0xbc, 0x4c, 0xb3, 0x59, 0xbc, 0xab, 0xc7,
    0xd8, 0x3a, 0x10, 0x2b, 0x9e, 0x39, 0xb8, 0x41, 0xe5, 0x3c,
    0x71, 0x1f, 0xd5, 0x3c, 0x30, 0xcd, 0x53, 0x3b, 0xd8, 0x5d,
    0xe0, 0xbc, 0xa3, 0xad, 0xbd, 0x39, 0x36, 0x82, 0x29, 0x3b,
    0xa3, 0xfa, 0xcd, 0x3b, 0xc4, 0x2f, 0x12, 0x3d, 0x92, 0x40,
    0x15, 0xbc, 0x0b, 0x3e, 0xe5, 0xbb, 0x08, 0x1c, 0xa8, 0x3c,
    0xc4, 0x58, 0x8c, 0xbb, 0x2c, 0xdb, 0x78, 0x3b, 0x37, 0x9d,
    0xb7, 0x3c, 0x11, 0x4a, 0x28, 0xbc, 0x33, 0xf9, 0x2c, 0x3d,
    0x35, 0xb0, 0xb8, 0xba, 0x3d, 0x1d, 0x7d, 0x3c, 0x35, 0x59,
    0x61, 0xbc, 0xd0, 0x17, 0x33, 0x3c, 0x0f, 0x32, 0x10, 0x3c,
    0x74, 0x57, 0xc0, 0x3c, 0xf7, 0x93, 0x46, 0x3c, 0x7e, 0x7a,
    0x86, 0x3c, 0xb1, 0x40, 0xc8, 0xbc, 0x07, 0x39, 0x58, 0xbc,
    0x01, 0xae, 0x69, 0x3c, 0xb3, 0x99, 0x4d, 0x3c, 0xb0, 0xdf,
    0xb9, 0x3c, 0x3a, 0x61, 0xd5, 0xb8, 0xd9, 0x50, 0x77, 0x3c,
    0xce, 0xaa, 0xdf, 0x3c, 0x17, 0x43, 0x64, 0xbb, 0xdd, 0xe2,
    0x2a, 0x3d, 0xef, 0x7a, 0x27, 0xbc, 0x79, 0xb8, 0x03, 0x3d,
    0xf5, 0xce, 0x5c, 0x3a, 0xb9, 0xdf, 0x9d, 0xbc, 0x0a, 0x52,
    0xa9, 0xbc, 0xe8, 0x2a, 0x66, 0x3c, 0x25, 0xea, 0x93, 0x3c,
    0xa0, 0x53, 0xdd, 0xbb, 0x30, 0x95, 0x98, 0xbc, 0x00, 0x12,
    0xf4, 0xbb, 0x3e, 0x3d, 0x9a, 0xba, 0xaa, 0xd1, 0xa4, 0x3c,
    0xbf, 0x8c, 0x29, 0x3c, 0xae, 0xe8, 0x88, 0x3c, 0x35, 0xe7,
    0x56, 0x3c, 0x10, 0xc6, 0x7f, 0x3c, 0x76, 0x80, 0xf4, 0xbb,
    0xf3, 0x32, 0xb6, 0x3c, 0xac, 0xc0, 0xb7, 0x3a, 0xe9, 0x80,
    0x02, 0xbd, 0xde, 0xd6, 0xd1, 0xbc, 0xbd, 0xcd, 0x8e, 0x3c,
    0x87, 0xf3, 0xf1, 0xbb, 0x58, 0xb3, 0xbe, 0xbc, 0x92, 0x5b,
    0xa8, 0xbb, 0x39, 0x17, 0xad, 0x3b, 0x03, 0xf0, 0x85, 0xbc,
    0x8d, 0xa4, 0xe5, 0xbb, 0x46, 0xf2, 0xfd, 0x3c, 0xa7, 0x81,
    0xb6, 0xbc, 0xcb, 0xc5, 0x96, 0x38, 0xa1, 0x46, 0x3f, 0x3b,
    0xcb, 0x11, 0x93, 0x3a, 0x9f, 0x6b, 0xa7, 0x3b, 0xc7, 0x6b,
    0xf1, 0xbc, 0x42, 0xcb, 0x0c, 0x3c, 0x08, 0xc1, 0x95, 0xbc,
    0xa9, 0x81, 0xa0, 0xbc, 0x9e, 0x3b, 0xb6, 0x3c, 0x45, 0x02,
    0xe9, 0x3c, 0x72, 0xfd, 0xc3, 0x3b, 0x64, 0x8e, 0xea, 0xbc,
    0xf5, 0x40, 0x3d, 0x3b, 0x2d, 0xb4, 0x6e, 0x3c, 0x51, 0x87,
    0x6a, 0x3c, 0xf8, 0x09, 0x93, 0xbb, 0xd2, 0xb2, 0x20, 0x3b,
    0x76, 0x8d, 0xd1, 0x3b, 0xdc, 0x45, 0xd8, 0x3c, 0x9a, 0xf1,
    0x4c, 0x3a, 0x80, 0xb6, 0xe5, 0xbc, 0x48, 0x04, 0x93, 0xba,
    0xb5, 0x8d, 0xb4, 0xbc, 0x88, 0x93, 0x05, 0xbd, 0xf9, 0xb4,
    0x47, 0x3c, 0x68, 0xe7, 0xf1, 0x3b, 0xf2, 0xe4, 0x9a, 0xbc,
    0xd8, 0x53, 0xa9, 0x3c, 0x69, 0xb9, 0x58, 0x3c, 0x9f, 0x31,
    0xde, 0x3c, 0x39, 0x2c, 0xa8, 0xbc, 0x9d, 0x6e, 0x8d, 0xbb,
    0x3a, 0x24, 0xc1, 0xbc, 0x1e, 0x33, 0xde, 0xbb, 0x81, 0x47,
    0xd6, 0xbb, 0x27, 0xc9, 0x1e, 0xbc, 0x61, 0x2b, 0xe7, 0xbc,
    0x2e, 0x7f, 0xbe, 0x3c, 0x6a, 0x96, 0xc8, 0xbb, 0x31, 0xe6,
    0x9c, 0xbb, 0xa1, 0x3c, 0xb6, 0x3c, 0x31, 0x3f, 0xc6, 0xba,
    0x12, 0x12, 0xd4, 0x3c, 0x81, 0x53, 0xcc, 0xbc, 0xcb, 0xb3,
    0xef, 0xba, 0x58, 0x55, 0x55, 0x3b, 0x5b, 0x22, 0x51, 0xbc,
    0x70, 0x80, 0x15, 0xbd, 0x2b, 0xee, 0xee, 0x3a, 0xbf, 0x35,
    0x02, 0xbd, 0xdd, 0xeb, 0x8d, 0x3c, 0xf8, 0xf8, 0x24, 0xbb,
    0x10, 0x4e, 0x20, 0x3c, 0xfa, 0x31, 0x94, 0x3b, 0x41, 0xf7,
    0xdf, 0x3c, 0xb8, 0x68, 0x12, 0xbd, 0x40, 0x48, 0xfc, 0x3c,
    0x75, 0xe4, 0x3c, 0xbc, 0x57, 0x85, 0x27, 0x3c, 0x87, 0x54,
    0x09, 0x3b, 0x1e, 0xb4, 0x82, 0xbb, 0xfb, 0xbe, 0xe0, 0x3b,
    0x39, 0x83, 0x63, 0x3c, 0xc1, 0x23, 0x2e, 0x3c, 0x3f, 0x30,
    0xd6, 0xbc, 0xff, 0xb4, 0x5c, 0x3c, 0x92, 0x16, 0xcd, 0xbc,
    0x2c, 0xed, 0x98, 0xbc, 0xa8, 0xd6, 0xe3, 0xbc, 0x61, 0xef,
    0xa0, 0xbc, 0x8f, 0x27, 0x22, 0xbd, 0x98, 0x64, 0x68, 0xbc,
    0x47, 0xe5, 0xe5, 0xbc, 0x55, 0x0d, 0x94, 0x3c, 0x10, 0x78,
    0x7e, 0x3c, 0x15, 0x93, 0x98, 0xbc, 0x40, 0xc7, 0xfe, 0x39,
    0x55, 0x7b, 0xad, 0xbc, 0xf5, 0x18, 0xd8, 0xbc, 0xaf, 0x3b,
    0xd2, 0xbb, 0x00, 0x5c, 0x61, 0xbc, 0x80, 0x74, 0xbd, 0xbc,
    0xe2, 0x9c, 0x11, 0xbc, 0xba, 0xba, 0xbb, 0xbc, 0x51, 0x9b,
    0x9c, 0x3c, 0x45, 0x3a, 0x87, 0xbc, 0x98, 0x41, 0x5e, 0x3c,
    0x28, 0x6c, 0xda, 0x3c, 0x7f, 0xda, 0x0d, 0x3c, 0x2f, 0x43,
    0x92, 0xbc, 0x01, 0x6f, 0xd1, 0x3b, 0xd2, 0x0e, 0x8f, 0xbc,
    0x17, 0xfd, 0xef, 0x3b, 0xd8, 0x93, 0x8e, 0x3c, 0x58, 0x77,
    0x8f, 0x3c, 0x32, 0x5f, 0x38, 0xbc, 0xa4, 0xb7, 0x1b, 0x3d,
    0xc7, 0x8d, 0xbf, 0x3c, 0x51, 0xdc, 0x39, 0x3c, 0x41, 0xc4,
    0x84, 0x3c, 0x88, 0x3a, 0x5e, 0xbc, 0x93, 0xa3, 0x03, 0xbd,
    0xa0, 0x07, 0xf4, 0x3a, 0xc3, 0xa7, 0xa8, 0xbc, 0x2c, 0x68,
    0x6a, 0x3c, 0xbb, 0x49, 0x57, 0xbc, 0xa2, 0x1f, 0x3e, 0x3c,
    0x71, 0x13, 0xed, 0x3c, 0x14, 0x38, 0xd4, 0x3b, 0x88, 0x10,
    0xe0, 0xbc, 0x68, 0x9b, 0x72, 0xbc, 0xe8, 0x79, 0x09, 0x3c,
    0x7d, 0xce, 0xa2, 0x3a, 0xb0, 0xb9, 0xa5, 0xbc, 0x7b, 0x17,
    0xc1, 0xbb, 0x49, 0x5d, 0x8d, 0x3b, 0xa6, 0x34, 0x47, 0x3c,
    0x49, 0x39, 0xc8, 0x3c, 0xb7, 0x84, 0x26, 0x3c, 0x4e, 0xd0,
    0xb4, 0x3c, 0xe3, 0x02, 0x8e, 0xbc, 0x1e, 0x47, 0xdb, 0xbc,
    0xc6, 0xc0, 0x19, 0x3b, 0x3d, 0x2b, 0x98, 0x3c, 0x2b, 0x3e,
    0x93, 0x3c, 0x4a, 0xb3, 0x75, 0x3c, 0xa8, 0x1a, 0xf5, 0xbb,
    0xf5, 0x48, 0xa9, 0x3c, 0x54, 0x0a, 0xa0, 0xbc, 0xbe, 0x31,
    0x1a, 0x3c, 0x94, 0xd3, 0x87, 0x3c, 0x33, 0xe0, 0xaa, 0xbb,
    0xc8, 0xe5, 0x68, 0x3c, 0x62, 0xc4, 0x02, 0x3d, 0x36, 0x10,
    0xdf, 0xbc, 0x1f, 0xd5, 0xa0, 0x3b, 0xee, 0xd2, 0xf0, 0xbc,
    0xbb, 0x4e, 0x21, 0xbd, 0x09, 0x5c, 0xa1, 0xbb, 0xb4, 0x02,
    0x9c, 0xbb, 0x78, 0x1f, 0xbf, 0xbc, 0x02, 0x16, 0xd2, 0x3b,
    0x9b, 0x35, 0x2a, 0x3c, 0x20, 0x0f, 0x86, 0x3c, 0x9e, 0xcc,
    0x67, 0xbc, 0xeb, 0x5e, 0xfc, 0xbc, 0x34, 0x52, 0xb1, 0xbc,
    0x29, 0x3b, 0xc1, 0xbc, 0x8c, 0xfa, 0xbd, 0xbb, 0x5a, 0xde,
    0x27, 0xbb, 0xd3, 0x2c, 0x4a, 0x3c, 0x68, 0x13, 0xa1, 0x3b,
    0x06, 0x5f, 0xc8, 0xbc, 0x38, 0xfe, 0xd5, 0xbc, 0xdd, 0x54,
    0xc1, 0xbc, 0xf7, 0x70, 0xcc, 0x3a, 0x25, 0x02, 0xba, 0xbc,
    0x2d, 0x3d, 0x93, 0xbc, 0x5d, 0xad, 0x8e, 0x3c, 0xab, 0x21,
    0x7f, 0x3c, 0x89, 0x8d, 0x8a, 0x3b, 0x2d, 0xe0, 0xa3, 0x3c,
    0x6d, 0x75, 0x9b, 0x3c, 0x4c, 0x35, 0x20, 0xbc, 0xce, 0x49,
    0xbb, 0xbb, 0x2c, 0x1d, 0xcb, 0x3b, 0x96, 0xd0, 0x49, 0xbb,
    0x84, 0xb6, 0x99, 0xbb, 0x25, 0x6c, 0xf1, 0xbc, 0x28, 0xd7,
    0x07, 0xbd, 0x3e, 0xa0, 0x14, 0xbc, 0xf0, 0x19, 0xac, 0x3c,
    0x38, 0x6b, 0x91, 0xb9, 0xe1, 0x00, 0x0c, 0xbc, 0xbb, 0xce,
    0xf1, 0x3a, 0x30, 0x19, 0xd1, 0xbc, 0xac, 0xbc, 0x0c, 0xbb,
    0xc0, 0xf0, 0xb8, 0xbc, 0xb7, 0x51, 0x0c, 0x3b, 0xd0, 0x8c,
    0x76, 0x3c, 0x71, 0x13, 0x0c, 0x3d, 0xa6, 0x5e, 0x24, 0x3c,
    0x80, 0x49, 0x9d, 0xbb, 0xe0, 0xe3, 0x8f, 0xbc, 0xe0, 0x92,
    0x3b, 0xbd, 0x81, 0xd7, 0x0e, 0xbd, 0xd5, 0xbd, 0x6a, 0xbc,
    0x3a, 0xf3, 0xb5, 0xbb, 0x04, 0x6e, 0xad, 0x3b, 0xdc, 0x21,
    0x56, 0xb9, 0x9f, 0xa0, 0xd2, 0xba, 0x7d, 0x6c, 0x00, 0xbd,
    0x98, 0x4b, 0xd6, 0xbc, 0x66, 0xfc, 0x03, 0x3d, 0xba, 0x25,
    0xda, 0xbc, 0xa4, 0x01, 0x88, 0x3b, 0x92, 0x82, 0xa3, 0xbb,
    0xe4, 0x02, 0x4f, 0x3c, 0x00, 0xfd, 0x57, 0x3b, 0x60, 0x87,
    0x35, 0x39, 0xed, 0x56, 0x06, 0xbd, 0xb4, 0x9d, 0xe9, 0x3b,
    0x54, 0x64, 0xb9, 0x3c, 0xd6, 0x92, 0xdb, 0xbb, 0xf3, 0xeb,
    0xb6, 0x3c, 0x02, 0x9b, 0x51, 0xbc, 0xec, 0x19, 0x9b, 0x3c,
    0x7b, 0x6b, 0x6c, 0x3c, 0xfa, 0xa9, 0xa4, 0x3c, 0x0a, 0xe9,
    0xce, 0xbb, 0x44, 0xbc, 0xbe, 0xbc, 0xec, 0x96, 0xec, 0x3c,
    0x0b, 0xbd, 0x09, 0xbc, 0xbe, 0x6e, 0xc3, 0xbc, 0x11, 0x23,
    0x20, 0x3c, 0x25, 0x4a, 0xa8, 0xbc, 0x80, 0xc2, 0xd0, 0xbb,
    0x39, 0x35, 0x24, 0x3b, 0x25, 0xb6, 0x68, 0x3c, 0x4d, 0x49,
    0x25, 0x3c, 0xb9, 0xe0, 0xef, 0xbc, 0xfe, 0x68, 0x86, 0x3c,
    0xa0, 0x3c, 0xc8, 0x3b, 0x59, 0x8f, 0x85, 0x3c, 0x60, 0xe0,
    0x0b, 0xbc, 0x53, 0x47, 0x96, 0xbc, 0x71, 0x39, 0x13, 0xbc,
    0xd0, 0xeb, 0x55, 0xbc, 0x9c, 0x19, 0x35, 0x3b, 0x95, 0x25,
    0xfd, 0xbb, 0x70, 0x96, 0x0b, 0xbc, 0xe7, 0x91, 0xb8, 0xbc,
    0xdd, 0x2f, 0xb6, 0x3b, 0xb3, 0x28, 0x94, 0xbc, 0x46, 0xaf,
    0x8e, 0x3b, 0x6f, 0xd8, 0x77, 0xbc, 0x85, 0xf8, 0x6a, 0x3c,
    0x7c, 0x11, 0x22, 0x3b, 0x7b, 0x12, 0x2e, 0x3a, 0xe9, 0x5c,
    0xf9, 0x3b, 0x0a, 0xd6, 0x5d, 0x3c, 0xe3, 0xc3, 0x6f, 0xbc,
    0x83, 0x54, 0xb6, 0x3b, 0x5a, 0xda, 0x67, 0xbb, 0x5e, 0x3a,
    0x35, 0x3c, 0x7b, 0x0e, 0x6b, 0xbb, 0x03, 0xf1, 0x16, 0xbb,
    0x72, 0x96, 0xaf, 0xbc, 0xe8, 0x6a, 0x90, 0xbc, 0x6d, 0x2b,
    0x96, 0xbc, 0x93, 0x36, 0xaa, 0xbc, 0xe0, 0x65, 0x00, 0x3c,
    0x9d, 0x5b, 0x2b, 0xbc, 0xb3, 0x07, 0x2c, 0xbc, 0xeb, 0x06,
    0x8b, 0x3c, 0x82, 0xa9, 0x1d, 0xbc, 0x52, 0xd1, 0x8e, 0xbc,
    0xdb, 0x3f, 0x29, 0xbb, 0xce, 0x02, 0xb2, 0x3c, 0xd1, 0x25,
    0x1f, 0xbc, 0x84, 0xa7, 0xcf, 0xbc, 0x7a, 0xf2, 0x94, 0xbc,
    0x2a, 0xd5, 0xf4, 0xbc, 0x13, 0x7a, 0xc3, 0xbc, 0x8f, 0x2c,
    0xed, 0x3c, 0x67, 0xe9, 0xa1, 0x3b, 0x1f, 0x7d, 0xe9, 0x39,
    0xf1, 0x79, 0xa8, 0x3c, 0x8e, 0x2b, 0xc0, 0xbc, 0xe0, 0xb9,
    0x75, 0x3c, 0x3e, 0x99, 0x90, 0xbb, 0xc1, 0x57, 0x87, 0xbc,
    0xfe, 0x52, 0x41, 0x3b, 0xd0, 0x0d, 0x6d, 0xbc, 0x52, 0x40,
    0x3c, 0xbc, 0xb4, 0x6b, 0xeb, 0x3c, 0x12, 0x53, 0x42, 0x3c,
    0xdb, 0xec, 0x67, 0xbb, 0x85, 0xdc, 0xca, 0xbc, 0xfb, 0x60,
    0x56, 0x3c, 0x6e, 0x91, 0x08, 0x3d, 0x49, 0x0c, 0xb2, 0xbc,
    0xdf, 0x22, 0xec, 0xbc, 0x60, 0x89, 0x53, 0xbb, 0x66, 0x7b,
    0xd9, 0x3b, 0x45, 0xab, 0x4e, 0x3c, 0xaf, 0x5f, 0x22, 0xbc,
    0xd3, 0xad, 0xab, 0x3c, 0x93, 0x83, 0x56, 0x3c, 0x5c, 0xf6,
    0x70, 0x3c, 0x2e, 0xb3, 0xd7, 0xbc, 0x33, 0xdf, 0xec, 0x3c,
    0x90, 0x6c, 0x9a, 0x3c, 0x37, 0x21, 0xfe, 0xbc, 0x0e, 0x35,
    0x7f, 0x3c, 0xcc, 0xe4, 0xbe, 0xbc, 0xa7, 0x6d, 0xa3, 0x3c,
    0x73, 0x01, 0xd4, 0xbb, 0x1c, 0x98, 0x06, 0xbc, 0xca, 0xd0,
    0xa2, 0x3b, 0x19, 0xde, 0x4d, 0xbc, 0x89, 0xdb, 0x12, 0x3b,
    0x25, 0x1c, 0x26, 0x3c, 0x8e, 0xd4, 0x2f, 0x3b, 0x6f, 0x42,
    0x63, 0x3b, 0x71, 0x77, 0x76, 0xbc, 0xac, 0x4a, 0x01, 0xbd,
    0xf7, 0xdd, 0x4f, 0x3c, 0xe3, 0xdd, 0x0b, 0x3c, 0x1f, 0x0b,
    0x8c, 0xbc, 0x95, 0x03, 0x4c, 0xbc, 0xf4, 0x4f, 0xc7, 0xbb,
    0xf2, 0x60, 0xb2, 0xbc, 0xe3, 0x40, 0x89, 0xbc, 0x41, 0x85,
    0xa3, 0xbb, 0xa3, 0x16, 0xf1, 0xbb, 0xe3, 0x6a, 0xfe, 0xbc,
    0xc9, 0x54, 0x97, 0x3c, 0xa7, 0x96, 0x6e, 0x3b, 0x19, 0x54,
    0xc6, 0x3b, 0x93, 0x15, 0x62, 0xbc, 0x1d, 0x47, 0x02, 0x3d,
    0xbf, 0x56, 0x66, 0x3b, 0x59, 0xcc, 0x8e, 0x3c, 0xd0, 0x74,
    0x92, 0xbc, 0x1c, 0x1a, 0x17, 0x3d, 0x2b, 0x31, 0x88, 0xbc,
    0x67, 0xd9, 0xfa, 0x3a, 0xeb, 0xa8, 0xb9, 0xbc, 0x7c, 0x53,
    0xb4, 0xbb, 0x27, 0xf5, 0x87, 0xbc, 0x6e, 0x37, 0xa0, 0xbc,
    0xd3, 0x3e, 0xe8, 0x3b, 0xab, 0x35, 0xc8, 0xba, 0xeb, 0xf5,
    0x80, 0x3b, 0xa5, 0x8f, 0x38, 0xbc, 0x50, 0x59, 0xe1, 0xbb,
    0xfc, 0x9f, 0x3d, 0x3c, 0x85, 0xf3, 0xb6, 0x3a, 0xb2, 0x97,
    0xb0, 0x3b, 0x68, 0x3e, 0xfa, 0xbb, 0x40, 0xaa, 0xed, 0xba,
    0xb6, 0xe7, 0x24, 0x3b, 0x8e, 0x7a, 0x08, 0x3d, 0xcc, 0xe4,
    0x32, 0x3c, 0x95, 0x5c, 0x1d, 0x3b, 0x94, 0x8a, 0xc3, 0x3a,
    0x28, 0x3a, 0x76, 0xbb, 0x6a, 0xff, 0xce, 0x3c, 0x12, 0xdf,
    0xca, 0x3c, 0x9b, 0xa8, 0x69, 0x3c, 0x5e, 0xce, 0x8d, 0x3c,
    0x43, 0x0e, 0x48, 0x3c, 0x5f, 0xcd, 0xc0, 0xbb, 0x17, 0xc5,
    0x8b, 0x3c, 0xfa, 0xa2, 0x62, 0xbc, 0xf5, 0xd7, 0xf1, 0x3a,
    0x33, 0xa7, 0xb2, 0x3c, 0x92, 0xa7, 0x10, 0xbd, 0x13, 0x76,
    0xe0, 0x3b, 0xca, 0xa7, 0x5e, 0xbc, 0x8c, 0xda, 0x8d, 0x3b,
    0x89, 0x00, 0x9e, 0xbb, 0x28, 0x25, 0xa2, 0x3c, 0xf2, 0xbb,
    0xb5, 0xbc, 0x16, 0x3b, 0x85, 0xbc, 0xc6, 0xb2, 0x98, 0xbc,
    0xaf, 0xfd, 0x18, 0x3b, 0x89, 0xb9, 0xf6, 0xbb, 0x9a, 0x39,
    0x2f, 0x3b, 0x3a, 0xba, 0xe7, 0x3c, 0x02, 0xb5, 0x1c, 0xbc,
    0x29, 0xd4, 0xd5, 0x3c, 0x76, 0x62, 0xfa, 0xbb, 0x1d, 0x14,
    0xee, 0x3c, 0x80, 0xaa, 0x51, 0x3b, 0x31, 0x87, 0x0c, 0x3c,
    0x2c, 0xc5, 0x6e, 0x3a, 0x40, 0x22, 0x41, 0xbc, 0x26, 0x80,
    0xa4, 0x3c, 0xde, 0xb9, 0x6d, 0x3a, 0xe6, 0x04, 0x83, 0x3c,
    0x17, 0xff, 0xe6, 0x3b, 0x68, 0x43, 0xb4, 0x3c, 0x19, 0x92,
    0xe7, 0xbb, 0xc9, 0x4e, 0xef, 0x3c, 0x5b, 0x20, 0x8d, 0xbc,
    0xcc, 0x7f, 0x4d, 0x3c, 0xef, 0x7a, 0xee, 0x3c, 0xd0, 0xa2,
    0x9f, 0x3c, 0xbc, 0xf9, 0xa5, 0xbc, 0x30, 0x34, 0x90, 0xba,
    0x84, 0x43, 0xa6, 0x3c, 0x76, 0xd0, 0x0d, 0xbc, 0xa3, 0x3b,
    0x70, 0x3c, 0x84, 0x39, 0xbc, 0x3c, 0xbd, 0xc5, 0x8d, 0xbc,
    0xa1, 0x52, 0xb1, 0x3b, 0x2b, 0x42, 0x1f, 0xbb, 0xce, 0xbd,
    0xaa, 0x3c, 0x96, 0x0e, 0xfb, 0xbb, 0xa7, 0x2b, 0x3a, 0x3c,
    0x36, 0xd0, 0x0f, 0xbd, 0xb1, 0x2b, 0x31, 0x3b, 0x73, 0x8a,
    0xa9, 0x3a, 0x85, 0xeb, 0xec, 0xbc, 0xe3, 0xd4, 0xab, 0xbc,
    0xd6, 0x6b, 0x7c, 0x3c, 0x34, 0xfd, 0x95, 0x3b, 0xdb, 0xc6,
    0x2f, 0x3c, 0xeb, 0xce, 0xfd, 0xbb, 0x15, 0xdc, 0x25, 0xbd,
    0x9c, 0x98, 0xac, 0xbc, 0x6d, 0x88, 0x62, 0x3c, 0x84, 0x7d,
    0xa9, 0xbb, 0x13, 0x28, 0xc0, 0x3b, 0x26, 0xd6, 0x99, 0x3b,
    0x45, 0xee, 0x00, 0xbc, 0x35, 0x47, 0x89, 0xbc, 0x10, 0xff,
    0xeb, 0xbb, 0x36, 0xc1, 0x3a, 0x3c, 0x9b, 0x8f, 0x6b, 0xbc,
    0xfa, 0xaa, 0x01, 0x3c, 0x73, 0xb4, 0x78, 0x3c, 0x04, 0xb5,
    0x34, 0xbc, 0x43, 0xc2, 0xc0, 0x3b, 0x20, 0xab, 0x11, 0x3c,
    0x6f, 0xf0, 0x01, 0xbd, 0x04, 0x3d, 0xdc, 0xbb, 0x8b, 0x1b,
    0x12, 0xbd, 0xc0, 0x8c, 0x17, 0xbd, 0x02, 0x65, 0x13, 0xbc,
    0x79, 0x12, 0xa8, 0x3c, 0xc5, 0xc1, 0x96, 0x3c, 0x4e, 0xf7,
    0x3d, 0x3b, 0x43, 0xd1, 0xd7, 0x3b, 0x7a, 0xd0, 0x98, 0xba,
    0x98, 0xcd, 0xb3, 0xbc, 0x64, 0xd3, 0x56, 0x3b, 0xdc, 0x1c,
    0x89, 0x3b, 0x13, 0x85, 0xef, 0x3b, 0xdb, 0x5e, 0xd4, 0xbc,
    0x7a, 0x81, 0x6b, 0xbc, 0x2a, 0x77, 0xba, 0xbb, 0xb8, 0x23,
    0x20, 0xbc, 0xa7, 0x3a, 0xb2, 0x3b, 0x62, 0xd2, 0xd4, 0x3c,
    0x14, 0x7d, 0x99, 0x3c, 0x33, 0x8f, 0x4b, 0x3a, 0xfa, 0x15,
    0xbc, 0x3c, 0x99, 0x5a, 0x43, 0xbc, 0x15, 0xa7, 0x80, 0xbc,
    0xb8, 0x6a, 0x11, 0xbb, 0xea, 0xad, 0xc9, 0xb8, 0x5a, 0xc9,
    0x5b, 0x3c, 0x97, 0xdb, 0x84, 0xbc, 0x76, 0xd4, 0x0f, 0xbd,
    0x9f, 0x0e, 0x80, 0xbc, 0x56, 0x6c, 0x37, 0x3c, 0x1e, 0xe8,
    0x2e, 0x3c, 0x4e, 0x42, 0x56, 0xbc, 0x93, 0xdf, 0xe1, 0x39,
    0xc4, 0xd3, 0xba, 0x3c, 0x64, 0x49, 0xad, 0x39, 0xdb, 0xf5,
    0x0b, 0x3c, 0xa4, 0x4c, 0xff, 0xbc, 0xef, 0xfd, 0x10, 0xbd,
    0xf7, 0x20, 0x6a, 0xbc, 0xab, 0xee, 0xed, 0xbc, 0x8e, 0x76,
    0x2f, 0xbc, 0x8e, 0xe7, 0x61, 0xbb, 0xa5, 0xe9, 0xef, 0xb9,
    0x71, 0x2a, 0x93, 0xbc, 0xf4, 0x00, 0xd5, 0xbc, 0x61, 0x13,
    0x1d, 0xba, 0xe4, 0x0c, 0x22, 0xbc, 0x0c, 0x7f, 0xa1, 0xbc,
    0xfd, 0x43, 0x8c, 0xbc, 0x84, 0x03, 0x47, 0xbc, 0xb9, 0x7d,
    0xbb, 0xba, 0x5f, 0x51, 0x9f, 0xbc, 0x4c, 0x70, 0x1c, 0xbb,
    0x20, 0x5f, 0x0f, 0x3c, 0xe6, 0x7e, 0x05, 0x3d, 0x26, 0x6f,
    0x88, 0x3c, 0x63, 0x12, 0xa2, 0xbc, 0x1a, 0x79, 0x7d, 0xbc,
    0x72, 0xf8, 0x2b, 0xbc, 0x47, 0x8b, 0x1a, 0x3c, 0x33, 0x2c,
    0x85, 0xba, 0x2b, 0x26, 0x3c, 0x3c, 0x55, 0xe9, 0xa0, 0x3c,
    0xde, 0x15, 0x93, 0x3c, 0xde, 0x53, 0xd2, 0x3c, 0x34, 0xe2,
    0x1e, 0x3c, 0x58, 0x00, 0x54, 0xbc, 0xaf, 0x5b, 0x2c, 0xbc,
    0x39, 0x14, 0x2f, 0x3c, 0xc7, 0x98, 0x8a, 0xba, 0xdc, 0x2e,
    0x40, 0x3b, 0x92, 0xf3, 0x0b, 0xbc, 0xdf, 0x06, 0x81, 0x3b,
    0x34, 0x69, 0xf5, 0xbb, 0xcc, 0x8b, 0xea, 0x3b, 0x7a, 0x79,
    0xaa, 0xbc, 0xf1, 0x70, 0x7f, 0xbc, 0x0b, 0xdf, 0x2d, 0x3c,
    0x1a, 0x5a, 0x2b, 0x3c, 0x28, 0x42, 0x44, 0xbc, 0x07, 0x01,
    0xec, 0xbb, 0x12, 0xc3, 0xbc, 0x3b, 0x0c, 0x34, 0x32, 0x3b,
    0x81, 0x64, 0x92, 0x3c, 0x8d, 0xe5, 0x2a, 0xbc, 0x73, 0xe7,
    0x82, 0x3c, 0x6d, 0x3d, 0x42, 0x3c, 0x18, 0x15, 0x90, 0x3c,
    0x7d, 0xa3, 0x85, 0xbc, 0x67, 0x62, 0x68, 0xbc, 0x3b, 0x6e,
    0xb7, 0x3c, 0x59, 0x5c, 0x92, 0xbc, 0x37, 0x51, 0x82, 0x3c,
    0x32, 0x49, 0x94, 0x3b, 0x8e, 0xd0, 0xab, 0xbc, 0xef, 0xe0,
    0x5a, 0xbc, 0x54, 0xb2, 0xab, 0x3a, 0x2a, 0x8d, 0x0f, 0x3b,
    0xf3, 0xde, 0x87, 0xbc, 0x49, 0xf3, 0xb7, 0xbc, 0xcd, 0xef,
    0x01, 0x3c, 0x9d, 0xfe, 0x8b, 0xbc, 0x9e, 0x42, 0xa7, 0x3a,
    0x9e, 0x80, 0xcf, 0xbc, 0xd4, 0x2a, 0xa5, 0xbc, 0xb3, 0x0b,
    0xc6, 0xbc, 0xb7, 0xd0, 0x3f, 0xba, 0xd1, 0x7f, 0x29, 0xbc,
    0xbb, 0xb5, 0xb8, 0xbc, 0x7a, 0xca, 0x84, 0xbc, 0x78, 0xce,
    0xc3, 0x3c, 0x60, 0x0a, 0x89, 0x3a, 0x59, 0x48, 0xa3, 0x3c,
    0xd4, 0x86, 0x17, 0x3c, 0x31, 0xfb, 0x00, 0xbd, 0x56, 0xac,
    0x86, 0x3b, 0x10, 0x91, 0x1b, 0xbb, 0x0f, 0xe0, 0xdb, 0x3b,
    0x58, 0x93, 0x10, 0x3c, 0x49, 0xcf, 0x0f, 0x3c, 0x4d, 0x83,
    0xca, 0x3c, 0xb2, 0x8d, 0x87, 0x3c, 0x91, 0x1d, 0x9b, 0xbc,
    0x59, 0x4c, 0xa3, 0xbc, 0x65, 0x27, 0x17, 0x3b, 0xcc, 0x71,
    0xa1, 0xbc, 0x45, 0xdf, 0x64, 0xbc, 0x43, 0xcb, 0xb3, 0x3b,
    0x18, 0x12, 0xb3, 0x3c, 0xd3, 0x0b, 0x0d, 0xbc, 0x5c, 0xc6,
    0xbd, 0xbc, 0x73, 0xc7, 0x85, 0xbc, 0x09, 0x49, 0xbf, 0x3b,
    0x40, 0x2f, 0x6e, 0x3c, 0xe5, 0x8a, 0x99, 0x3b, 0x3a, 0x1e,
    0xb2, 0x3b, 0x8e, 0xf8, 0xa5, 0x3c, 0x56, 0xde, 0x30, 0xbb,
    0x4a, 0x6b, 0xe3, 0xbc, 0xae, 0x57, 0x5f, 0xbc, 0xad, 0x3c,
    0xb9, 0x3b, 0xec, 0xfd, 0xc0, 0xbc, 0xbd, 0x30, 0x99, 0xbc,
    0xe4, 0xe5, 0x92, 0x3c, 0x2d, 0x13, 0x83, 0xbb, 0x0d, 0xdb,
    0x71, 0xbc, 0x2d, 0x12, 0xb9, 0xbc, 0x49, 0xff, 0x56, 0xbc,
    0xa8, 0x32, 0xdd, 0xbc, 0xd1, 0x1b, 0x6c, 0xbc, 0x7f, 0xf4,
    0xc5, 0x3b, 0xac, 0x30, 0x5a, 0xbc, 0x32, 0xe8, 0xbb, 0xbc,
    0x6d, 0xb6, 0x5a, 0x3b, 0x14, 0x78, 0x06, 0xbd, 0x97, 0x02,
    0x19, 0xbd, 0x31, 0xd5, 0x39, 0xbc, 0xd1, 0x5a, 0xc4, 0x3c,
    0xa3, 0xce, 0x84, 0x3c, 0x5d, 0x8f, 0x8a, 0xbc, 0x87, 0x37,
    0x6c, 0x3a, 0xa4, 0xb5, 0x75, 0xbc, 0x0d, 0x4f, 0x36, 0xbb,
    0x9a, 0xf6, 0x74, 0x3c, 0x81, 0x0f, 0x99, 0x3c, 0x56, 0x9b,
    0xd5, 0xbc, 0xb6, 0x54, 0xf9, 0xbb, 0x56, 0x7b, 0x30, 0xbc,
    0xac, 0xd4, 0xcc, 0xbc, 0xba, 0xf6, 0x89, 0x3c, 0x96, 0x66,
    0xd4, 0x3c, 0xeb, 0x6f, 0x00, 0x3c, 0xb3, 0xf8, 0x05, 0xbc,
    0x31, 0x07, 0x66, 0xbc, 0x9b, 0x08, 0x59, 0x3c, 0xbb, 0x6b,
    0x74, 0xba, 0x23, 0xe2, 0xa8, 0x3c, 0x78, 0x6e, 0x6e, 0xbc,
    0xd5, 0xaa, 0x17, 0xbc, 0xe0, 0x40, 0xa9, 0x3c, 0x2a, 0x3b,
    0x76, 0xbc, 0x2e, 0x93, 0xdd, 0xbb, 0xff, 0xee, 0xf9, 0xbc,
    0xb3, 0xd3, 0xb0, 0xbb, 0xb3, 0x51, 0x45, 0x3b, 0x15, 0x9b,
    0xde, 0xbc, 0x56, 0xdd, 0xa5, 0xbc, 0xa5, 0x66, 0x8c, 0x3c,
    0x95, 0x53, 0x4f, 0x3c, 0x48, 0x24, 0x68, 0xbc, 0x6e, 0xeb,
    0xd2, 0x3c, 0xb9, 0x0c, 0xc7, 0xbc, 0xd5, 0xe4, 0x8c, 0xbc,
    0x7a, 0xd0, 0xa1, 0xbc, 0xd0, 0x02, 0x0a, 0x3c, 0xbf, 0x37,
    0x11, 0xbd, 0x65, 0xf3, 0xb9, 0x3b, 0xd8, 0x1e, 0x9a, 0x3c,
    0x83, 0xd8, 0x0b, 0x3c, 0xdf, 0xb2, 0xf8, 0xba, 0xce, 0xfe,
    0x83, 0x3a, 0x20, 0xd4, 0x19, 0xb9, 0x77, 0x43, 0x45, 0x3b,
    0x2f, 0xd2, 0x83, 0x3b, 0x8e, 0x03, 0xc7, 0xbb, 0x15, 0x7d,
    0x6e, 0xbb, 0x9d, 0xef, 0x89, 0xbc, 0x55, 0xae, 0x7f, 0xbb,
    0xbc, 0x2e, 0xbd, 0x3b, 0xd2, 0x19, 0xa8, 0xbc, 0x38, 0x2d,
    0xf7, 0xba, 0xb3, 0x4c, 0x9b, 0x3c, 0x6e, 0xaf, 0xa0, 0x3c,
    0x75, 0x67, 0xa1, 0x3c, 0x0d, 0xa9, 0x9e, 0x3c, 0xdd, 0x09,
    0xaa, 0x3c, 0x1a, 0x36, 0x90, 0xba, 0x33, 0xa6, 0x76, 0xbc,
    0x10, 0x0f, 0xd3, 0x3a, 0xd2, 0x8d, 0x07, 0xbd, 0x28, 0x30,
    0x01, 0xbd, 0x3b, 0xb5, 0x90, 0x3b, 0xd4, 0x8e, 0x43, 0xbc,
    0x44, 0x75, 0x89, 0x3b, 0xba, 0xf2, 0x36, 0x3c, 0xea, 0x80,
    0x09, 0xbd, 0x57, 0x03, 0x81, 0xbc, 0xde, 0x10, 0x3f, 0x3c,
    0x08, 0xf5, 0xc2, 0xbc, 0x1d, 0x25, 0x03, 0x3c, 0xd8, 0x5b,
    0xd4, 0xbb, 0x2b, 0x3b, 0x75, 0xbc, 0x3d, 0xa0, 0x8a, 0xbc,
    0x4b, 0xef, 0x97, 0x3c, 0x16, 0x9b, 0x7a, 0x3c, 0xb2, 0x0d,
    0xad, 0xbb, 0x84, 0xed, 0x31, 0x3c, 0x47, 0xd0, 0x1a, 0xbb,
    0x93, 0x03, 0x17, 0xbb, 0x2c, 0x37, 0xfc, 0xbc, 0x3f, 0x48,
    0xdc, 0xbc, 0xd9, 0xb5, 0xd3, 0xbb, 0xe8, 0x64, 0x8f, 0x3c,
    0x84, 0x58, 0x08, 0xbd, 0xa0, 0xb8, 0x83, 0x3b, 0x40, 0x80,
    0xed, 0xbb, 0x3f, 0x52, 0xc6, 0xbc, 0x01, 0xec, 0x0a, 0xbc,
    0x65, 0x2e, 0x90, 0xbb, 0x94, 0x35, 0xb6, 0xbb, 0x9d, 0x22,
    0x25, 0x3b, 0xd8, 0x3b, 0xd4, 0x3c, 0x7a, 0x9e, 0xc7, 0x3c,
    0x5c, 0x27, 0x69, 0x3c, 0xe9, 0xfa, 0x9c, 0xbb, 0xf9, 0xdb,
    0x05, 0xbd, 0xfa, 0x09, 0x9b, 0xb9, 0x12, 0x00, 0x04, 0x3c,
    0xf1, 0x54, 0xb4, 0xbc, 0xa9, 0x07, 0x19, 0xbd, 0xa2, 0xb7,
    0x2e, 0x3c, 0x7b, 0x9c, 0xbc, 0xbc, 0xc8, 0x6c, 0xac, 0xbc,
    0x39, 0xea, 0xce, 0x3c, 0xbe, 0x99, 0x4b, 0x3b, 0x0e, 0x54,
    0x15, 0xbc, 0x6d, 0x29, 0x69, 0xba, 0xcf, 0x65, 0x0a, 0xbd,
    0xe3, 0x9b, 0xe3, 0xbb, 0x3e, 0x89, 0xc8, 0xbc, 0x61, 0xc2,
    0x01, 0xbc, 0x8c, 0xfc, 0xf1, 0xbb, 0xaa, 0x67, 0xbe, 0x3c,
    0x94, 0x1a, 0x83, 0x3c, 0x61, 0x44, 0xc7, 0xbb, 0x7a, 0x25,
    0x2b, 0x3a, 0x64, 0x69, 0x93, 0x3b, 0x09, 0x5c, 0x1e, 0x3a,
    0xef, 0x6d, 0x6a, 0x3c, 0x8f, 0x0f, 0x06, 0xbb, 0xb5, 0x3d,
    0x08, 0xbd, 0xd1, 0x44, 0x6f, 0xbc, 0x3c, 0x37, 0x36, 0x3c,
    0x17, 0xa6, 0x9f, 0x3b, 0xa6, 0xfc, 0x6a, 0xbc, 0xba, 0xb2,
    0xae, 0x3c, 0x2a, 0x27, 0xc8, 0x3c, 0x89, 0x45, 0x9f, 0xbc,
    0x0f, 0xda, 0x60, 0x3c, 0xbe, 0x3c, 0xa1, 0x3c, 0xc1, 0xba,
    0x9e, 0xbc, 0xe2, 0xc1, 0xe4, 0x3b, 0x43, 0xf9, 0x00, 0xbb,
    0x13, 0xb9, 0x00, 0x3c, 0x1c, 0xf7, 0x2f, 0x3b, 0xa2, 0xdf,
    0x40, 0xbc, 0x07, 0x7b, 0x65, 0xbc, 0x66, 0xe8, 0xff, 0x3b,
    0x71, 0x1c, 0x44, 0x3c, 0x02, 0xb6, 0x18, 0x3b, 0xa3, 0x3f,
    0xb7, 0xbc, 0xaf, 0x89, 0x92, 0xbb, 0x6a, 0xb9, 0x2a, 0xbc,
    0x09, 0xdc, 0xde, 0x3a, 0x2b, 0x0f, 0xa5, 0xbc, 0xcf, 0x0e,
    0x73, 0xbb, 0x90, 0x35, 0xd6, 0xba, 0x7a, 0x40, 0xec, 0xbc,
    0x8d, 0x2f, 0xb4, 0xbc, 0xf3, 0x6c, 0xd9, 0xbc, 0x8a, 0x91,
    0x8f, 0xbb, 0x41, 0xfe, 0x63, 0xbc, 0x79, 0x20, 0xb3, 0xbb,
    0xbb, 0x9f, 0x4c, 0xbb, 0x15, 0x76, 0x01, 0x3c, 0xc0, 0xf0,
    0xe7, 0xbc, 0x13, 0xff, 0x9b, 0xbc, 0xe0, 0x7a, 0x68, 0xbc,
    0x9d, 0x92, 0x58, 0x3c, 0xf7, 0xf2, 0xbc, 0xbc, 0xe7, 0x90,
    0x82, 0x3b, 0x35, 0xb2, 0x13, 0x3d, 0x36, 0xe9, 0x1d, 0xbc,
    0x6b, 0xd4, 0x9a, 0x3b, 0xdc, 0xaa, 0xc8, 0x3c, 0x5d, 0x88,
    0x00, 0xbd, 0x9a, 0x19, 0xfc, 0xbb, 0x36, 0x27, 0x09, 0xbd,
    0x7c, 0x99, 0x02, 0x3c, 0x39, 0x6a, 0x96, 0x3b, 0x8e, 0x75,
    0x15, 0xbc, 0xe6, 0xfd, 0x04, 0x3b, 0xba, 0x18, 0xe0, 0xbc,
    0xb1, 0xeb, 0x1d, 0xbc, 0x85, 0x23, 0xa4, 0x3c, 0xcb, 0xce,
    0xb4, 0x3c, 0xc0, 0xbc, 0x2f, 0x3c, 0x7b, 0x25, 0x92, 0xbb,
    0xf6, 0x91, 0x54, 0x3c, 0x12, 0x0a, 0xc0, 0x3c, 0x11, 0x47,
    0xc5, 0x3b, 0xd1, 0x96, 0xb0, 0xbb, 0x2e, 0x49, 0xae, 0x3c,
    0x49, 0xee, 0x90, 0x3b, 0x83, 0x5b, 0x9d, 0x3c, 0xf3, 0xb7,
    0xa4, 0xbc, 0xdd, 0x8e, 0x97, 0x3b, 0xf2, 0xce, 0x3e, 0xbc,
    0x67, 0xcb, 0xc6, 0x3c, 0x7f, 0x49, 0x04, 0xbd, 0x30, 0x82,
    0xb4, 0xbc, 0x22, 0x0f, 0xd0, 0xbc, 0xd0, 0x4c, 0xe7, 0x3c,
    0xb9, 0x23, 0xcd, 0x3c, 0x58, 0x7f, 0x47, 0xbb, 0xb6, 0x21,
    0x1e, 0xbb, 0x8d, 0x10, 0xb3, 0xbc, 0x92, 0x81, 0x63, 0xbc,
    0xa9, 0x7d, 0xd1, 0x3c, 0x95, 0x35, 0x3e, 0x3b, 0xd5, 0x9a,
    0x91, 0xbc, 0x18, 0x63, 0xd2, 0xbc, 0x6e, 0x21, 0x4e, 0x3c,
    0xde, 0x9d, 0xea, 0xbc, 0x9e, 0x44, 0xed, 0x3b, 0x7f, 0x82,
    0xd8, 0xbc, 0x36, 0x9c, 0x97, 0xbc, 0x8f, 0x96, 0x02, 0xbc,
    0x75, 0x65, 0x0e, 0x3d, 0x17, 0xac, 0x67, 0xbc, 0x8c, 0xcd,
    0x30, 0xbc, 0x9f, 0xdc, 0x35, 0xbc, 0x6d, 0x3c, 0xb7, 0x3c,
    0x0d, 0x29, 0xba, 0x3c, 0x04, 0x78, 0x83, 0x3b, 0x56, 0xa4,
    0x4c, 0xbc, 0xca, 0xbc, 0xfb, 0xbc, 0x52, 0xd1, 0x25, 0xbd,
    0x5d, 0x75, 0x91, 0xbc, 0x29, 0x91, 0xbc, 0xbc, 0x42, 0x23,
    0x81, 0xbc, 0x30, 0x1e, 0xae, 0xbc, 0x14, 0xae, 0x8e, 0xbc,
    0x22, 0x8d, 0x32, 0xbc, 0xb6, 0xa9, 0x99, 0xbc, 0xcc, 0xcc,
    0x5f, 0xbc, 0x03, 0x56, 0x35, 0x3c, 0x7b, 0x43, 0xf8, 0xbc,
    0xfa, 0x65, 0x8b, 0x3c, 0x47, 0x0f, 0xe0, 0xbc, 0xc0, 0xeb,
    0x97, 0xbc, 0x83, 0x9f, 0xb0, 0xb7, 0xf6, 0x64, 0xf0, 0xbb,
    0xde, 0xc1, 0x97, 0xbc, 0x8b, 0x0d, 0xc0, 0xbb, 0x60, 0x0f,
    0xc4, 0xbc, 0x63, 0xc6, 0x2f, 0x3c, 0x24, 0xc4, 0xfa, 0xba,
    0x2f, 0xd0, 0x1c, 0xbc, 0xf9, 0xb5, 0xc3, 0x3a, 0xee, 0x9f,
    0xa7, 0xbb, 0xc0, 0x8e, 0x26, 0x3d, 0x1e, 0x9e, 0xf3, 0xbb,
    0xb1, 0x8a, 0x09, 0xbd, 0x3f, 0x25, 0x7f, 0xbc, 0x1d, 0xea,
    0x8f, 0xbc, 0xfe, 0x91, 0x13, 0xbc, 0xcb, 0xc1, 0x53, 0xbc,
    0x9b, 0x98, 0x8a, 0xbb, 0x5e, 0xdb, 0xb1, 0xbb, 0x90, 0x66,
    0x00, 0xbd, 0x80, 0xe5, 0x9e, 0xbc, 0x31, 0x5e, 0x1b, 0xbc,
    0xba, 0xd2, 0x18, 0xbd, 0xd6, 0x09, 0xba, 0x3b, 0xb4, 0xbe,
    0xfc, 0x3b, 0x1f, 0xa8, 0x02, 0xbd, 0x5e, 0x1a, 0xb2, 0x3c,
    0x10, 0x89, 0x41, 0x3c, 0x14, 0xbc, 0x1e, 0xbd, 0x2e, 0x5b,
    0x0d, 0xbc, 0xa7, 0x81, 0xa1, 0x3c, 0x86, 0x9b, 0x3e, 0x3b,
    0xf7, 0xed, 0x3e, 0x3c, 0x88, 0x16, 0x92, 0x3c, 0x91, 0x34,
    0x89, 0x3c, 0x24, 0xc8, 0x1a, 0x3d, 0xf5, 0x37, 0x15, 0x3a,
    0xd2, 0xca, 0x3b, 0xbc, 0x64, 0x19, 0x1e, 0xbc, 0x18, 0xce,
    0x7c, 0x3c, 0xad, 0xb9, 0x1c, 0x3b, 0x98, 0xc6, 0x8a, 0x3c,
    0x8e, 0x29, 0x38, 0x3c, 0xd7, 0x67, 0x92, 0xbc, 0xc1, 0x83,
    0x1d, 0x3d, 0xbc, 0x1a, 0x80, 0xbb, 0x2e, 0xcf, 0x4e, 0x3c,
    0xfa, 0x8b, 0xbf, 0xbb, 0xf0, 0x40, 0xec, 0xbc, 0x51, 0xd4,
    0x93, 0xbc, 0x36, 0xb8, 0xfb, 0xbc, 0x00, 0xf6, 0x86, 0xbb,
    0xf1, 0x18, 0xcb, 0x3c, 0x39, 0x6e, 0x6a, 0x3c, 0x7c, 0x48,
    0xca, 0x3c, 0x0f, 0x0e, 0x5d, 0xbc, 0xa4, 0x76, 0xfc, 0xbb,
    0xee, 0xf8, 0x7f, 0x3c, 0x25, 0x9e, 0x6c, 0x3c, 0x1e, 0x96,
    0x52, 0x3a, 0x8d, 0xb3, 0xdc, 0xbc, 0x61, 0x02, 0x6e, 0x3c,
    0x9e, 0x03, 0xbf, 0xba, 0xe4, 0xc9, 0xa8, 0x3b, 0x08, 0xc6,
    0x9e, 0x3c, 0xe2, 0xd0, 0xb4, 0x3b, 0xac, 0xb3, 0xeb, 0x3c,
    0xaa, 0x5d, 0x24, 0x3d, 0xba, 0x40, 0xb8, 0xbb, 0x7f, 0xf3,
    0xbc, 0xbc, 0xb4, 0x5a, 0x89, 0xbb, 0x67, 0x5a, 0x3f, 0x3b,
    0x59, 0x62, 0x8a, 0x3c, 0xa7, 0xaf, 0x2e, 0xbb, 0x05, 0x43,
    0x21, 0x3c, 0xd3, 0x8e, 0x91, 0x3c, 0x5e, 0xf8, 0x4f, 0x3c,
    0x87, 0x37, 0x11, 0xbc, 0xf2, 0x32, 0x8c, 0xbc, 0xe2, 0xe6,
    0x0f, 0xbb, 0xa9, 0xba, 0x36, 0x3c, 0x60, 0x33, 0x92, 0x3c,
    0x05, 0xed, 0x41, 0x3c, 0x6f, 0xce, 0x97, 0x3b, 0xb6, 0xf3,
    0x7a, 0x3b, 0xf2, 0xd4, 0xa6, 0xbc, 0x36, 0x6c, 0x39, 0xbc,
    0xe1, 0x6d, 0xeb, 0xbc, 0x2f, 0xd5, 0x1f, 0x3d, 0x72, 0x73,
    0x2b, 0x3b, 0x75, 0x8d, 0x98, 0x3b, 0xae, 0x7e, 0x02, 0x3c,
    0x4f, 0xa0, 0x07, 0x3d, 0xc0, 0xd2, 0x14, 0xbc, 0x79, 0x6b,
    0x37, 0x3b, 0x98, 0x16, 0x2a, 0x3c, 0x8e, 0xa2, 0xbd, 0xbc,
    0x79, 0x2e, 0xa0, 0x3b, 0x86, 0x2e, 0x0c, 0xbc, 0x61, 0x98,
    0xb0, 0xbc, 0x01, 0xdb, 0xb8, 0x3c, 0xfe, 0x66, 0x9a, 0x3c,
    0x61, 0xf4, 0x14, 0x3c, 0x34, 0x6e, 0x1a, 0xbc, 0xb1, 0xfd,
    0x93, 0xbb, 0x70, 0xff, 0x8a, 0xbc, 0x04, 0xfe, 0x2b, 0xbc,
    0xb0, 0x94, 0x82, 0xbc, 0xc9, 0x21, 0x18, 0x3c, 0x77, 0x56,
    0x6b, 0xbb, 0x94, 0x85, 0x55, 0x3c, 0x47, 0xb8, 0x02, 0xbd,
    0x03, 0xbf, 0x35, 0x3b, 0x2d, 0x27, 0xaa, 0xbc, 0x26, 0x3a,
    0x53, 0xbc, 0x20, 0x8a, 0xe8, 0xbc, 0xa7, 0x69, 0x25, 0x3b,
    0xd5, 0x23, 0xb7, 0xbc, 0x2b, 0xb9, 0x89, 0xbb, 0x50, 0x48,
    0x49, 0xbb, 0xe6, 0xe3, 0xda, 0x3b, 0xd4, 0xb8, 0x57, 0xbc,
    0x0b, 0xc6, 0xb1, 0xbc, 0x84, 0x3b, 0x90, 0x3c, 0xcb, 0x77,
    0x16, 0x3c, 0x52, 0x84, 0xca, 0xbc, 0x58, 0x45, 0x97, 0xbc,
    0x78, 0x3a, 0x37, 0xbc, 0x9f, 0x8c, 0x34, 0x3c, 0xce, 0x6d,
    0x40, 0x3c, 0x39, 0x55, 0x17, 0xbb, 0xa9, 0x92, 0x43, 0x3c,
    0x16, 0xc1, 0xa8, 0xbc, 0xdb, 0x39, 0x07, 0x3c, 0xbe, 0x91,
    0x7a, 0x3c, 0xa8, 0x64, 0xb6, 0xbc, 0x8d, 0x86, 0x26, 0x3b,
    0x2b, 0x7f, 0x84, 0x3c, 0x52, 0x62, 0xef, 0x3b, 0xc7, 0x2a,
    0xb5, 0xbc, 0x98, 0x85, 0x70, 0xbc, 0x8b, 0xd9, 0x09, 0x3d,
    0xb1, 0x6b, 0xb2, 0xbc, 0x99, 0x98, 0x11, 0xbc, 0xde, 0x05,
    0xaa, 0x3c, 0xc9, 0x71, 0x7b, 0xbc, 0x6b, 0x9b, 0x4f, 0xbc,
    0x3e, 0x4b, 0x9b, 0x3c, 0x00, 0x30, 0x3e, 0x3c, 0xc2, 0x9c,
    0xeb, 0xbc, 0x17, 0xff, 0xed, 0x3c, 0x1d, 0xda, 0x86, 0xb7,
    0xc3, 0x7b, 0xc6, 0x3c, 0xa7, 0x9c, 0x7f, 0xbc, 0xa4, 0x91,
    0x84, 0x3b, 0x76, 0x8b, 0x37, 0x3c, 0xc7, 0x4e, 0x96, 0xba,
    0x28, 0x47, 0x89, 0xbc, 0x98, 0x72, 0xbb, 0xbc, 0xb0, 0x26,
    0xb9, 0x3c, 0x04, 0x5f, 0x8a, 0xbc, 0x12, 0x53, 0x65, 0xbc,
    0xd7, 0xff, 0xa7, 0x3b, 0x1e, 0xc1, 0xca, 0x3a, 0xd0, 0x42,
    0xdc, 0x3b, 0xb2, 0xad, 0xa8, 0xbc, 0x8e, 0x1d, 0x33, 0xbb,
    0x32, 0xb9, 0x07, 0xbc, 0x8f, 0x7c, 0x15, 0x3d, 0x6f, 0xed,
    0x96, 0x3c, 0x86, 0x93, 0xc2, 0x3c, 0x56, 0x00, 0x1d, 0x3c,
    0xc1, 0x62, 0x8f, 0xbc, 0x19, 0xd6, 0x82, 0x3c, 0xc7, 0x22,
    0xa5, 0xbb, 0x7e, 0x60, 0x00, 0xbc, 0x0d, 0x6c, 0xd6, 0x3b,
    0xd3, 0x04, 0x21, 0xbc, 0x98, 0x2e, 0x82, 0xbc, 0x75, 0x27,
    0xcb, 0xbb, 0xde, 0x85, 0x02, 0x3d, 0xc5, 0xb4, 0x16, 0xbc,
    0xe7, 0x98, 0x6c, 0x3c, 0x08, 0x73, 0x0d, 0xbc, 0xb3, 0xbc,
    0x1f, 0xbc, 0x40, 0x10, 0x89, 0x3c, 0x26, 0x25, 0x96, 0x3b,
    0x8f, 0xaf, 0xdc, 0xbc, 0xd4, 0x65, 0x7c, 0x3c, 0x7b, 0x19,
    0x5a, 0x3b, 0x08, 0x54, 0x3d, 0x3c, 0x01, 0x4e, 0x1e, 0xbc,
    0x27, 0x46, 0xa0, 0x3c, 0xcc, 0x00, 0x0b, 0x3c, 0xc9, 0xab,
    0xd1, 0xbc, 0x4b, 0xad, 0x4f, 0xbc, 0xaa, 0xfb, 0x33, 0x3c,
    0x08, 0x0f, 0xe1, 0x3b, 0x65, 0x6f, 0x52, 0xbc, 0xaa, 0x6e,
    0x91, 0x3c, 0x7a, 0x90, 0x85, 0xbc, 0x1b, 0xab, 0x91, 0x3c,
    0xce, 0x68, 0x15, 0x3d, 0xf9, 0xe9, 0xcf, 0x3c, 0x53, 0x83,
    0x0e, 0x3c, 0xa1, 0xd7, 0xb8, 0xbc, 0xb2, 0x4a, 0x5e, 0x3c,
    0xb6, 0x8c, 0x4f, 0x3c, 0x64, 0x1d, 0x73, 0x39, 0x66, 0x97,
    0xa2, 0xbc, 0x1e, 0xda, 0x89, 0x3b, 0x36, 0x40, 0xe4, 0xbc,
    0x60, 0x07, 0x00, 0x3c, 0x1e, 0xe9, 0x2d, 0xba, 0x63, 0x7b,
    0xb3, 0xbc, 0x1d, 0x32, 0xbf, 0xbc, 0x08, 0x1e, 0x14, 0xbc,
    0xa7, 0x81, 0x0f, 0x3c, 0x61, 0x24, 0x04, 0x3d, 0x3d, 0xa5,
    0x9a, 0x3c, 0x5d, 0xfe, 0xab, 0xba, 0xc1, 0x88, 0xe2, 0x3b,
    0xde, 0xbb, 0x65, 0xbc, 0x15, 0xfe, 0x92, 0x3b, 0xee, 0x39,
    0x83, 0x3c, 0xf2, 0xfc, 0x8f, 0x3c, 0x91, 0x46, 0xb9, 0x3c,
    0x95, 0x6a, 0xb1, 0xbc, 0x21, 0xb6, 0xcb, 0xbc, 0xdd, 0xe4,
    0x80, 0x3c, 0xbb, 0x15, 0xb1, 0xbc, 0x7d, 0x66, 0xbb, 0xba,
    0xd8, 0x47, 0x68, 0x3b, 0xc0, 0xed, 0xc9, 0xba, 0x3c, 0x31,
    0xa1, 0x3c, 0x5b, 0x8b, 0xf5, 0xbb, 0x7b, 0x33, 0x9a, 0xbc,
    0x0c, 0x63, 0xe1, 0xbb, 0x50, 0xbe, 0x7c, 0xbc, 0x9b, 0x57,
    0xac, 0xbc, 0x4f, 0x80, 0x0d, 0xbd, 0xca, 0xb9, 0x0a, 0xbc,
    0x06, 0x4f, 0x5b, 0xbb, 0xe3, 0xfb, 0xef, 0xbc, 0xea, 0x6a,
    0x1c, 0xbc, 0x37, 0xfb, 0xd5, 0xba, 0x66, 0xf2, 0x2c, 0xbc,
    0x30, 0x51, 0x87, 0x3c, 0xb9, 0xb4, 0x09, 0xbc, 0xfe, 0x61,
    0x93, 0xbc, 0x96, 0x59, 0x01, 0x3b, 0x2e, 0x15, 0x71, 0x3c,
    0xe7, 0x5a, 0xcc, 0x3a, 0x3d, 0xca, 0x89, 0xbc, 0x1c, 0xc1,
    0x34, 0xbb, 0xce, 0x72, 0x45, 0xbb, 0x6a, 0xde, 0x42, 0xbb,
    0xef, 0xce, 0x2b, 0x3c, 0xe1, 0x28, 0x09, 0xbd, 0x10, 0x46,
    0x64, 0xbc, 0xba, 0x05, 0x01, 0x3d, 0xbf, 0xe9, 0x8c, 0x3b,
    0xa7, 0x08, 0x28, 0x3b, 0x4f, 0xb2, 0x9a, 0xbb, 0x82, 0xc9,
    0x94, 0xba, 0xd1, 0x8f, 0x45, 0xbc, 0x26, 0x7f, 0xc0, 0xbc,
    0xa5, 0x14, 0x1b, 0xbd, 0xfe, 0x47, 0x11, 0xbb, 0xfd, 0x7f,
    0x5c, 0x3c, 0xdf, 0xd7, 0xe0, 0x3c, 0x46, 0x05, 0x09, 0x3d,
    0x63, 0x1c, 0xa9, 0xbc, 0x73, 0xf8, 0x8d, 0x3b, 0x15, 0xe3,
    0x59, 0xbc, 0x87, 0x75, 0x06, 0xbc, 0xd2, 0x2b, 0x78, 0xbb,
    0xc7, 0x3b, 0x73, 0x3c, 0x03, 0xcc, 0x09, 0xbd, 0xe4, 0xab,
    0x6c, 0x3b, 0x72, 0x11, 0xdc, 0xbc, 0xb9, 0x72, 0xb4, 0x3c,
    0x39, 0x7d, 0xe1, 0x3c, 0xd6, 0x52, 0x7f, 0x3c, 0x1e, 0x45,
    0x21, 0xbd, 0xb6, 0x45, 0xec, 0xbb, 0x3a, 0x1d, 0x4a, 0x3c,
    0x5d, 0x1c, 0x99, 0xba, 0x54, 0x78, 0xec, 0xbb, 0x02, 0xf7,
    0x78, 0x3b, 0x00, 0x4b, 0xa8, 0xb9, 0xb7, 0xbc, 0xf8, 0x3c,
    0xe7, 0x96, 0x0b, 0x3b, 0x73, 0x54, 0x54, 0xbc, 0x49, 0x22,
    0x40, 0x3c, 0xba, 0x08, 0xdf, 0xbb, 0xed, 0x20, 0xbe, 0x3c,
    0x86, 0x92, 0x0d, 0xbc, 0x83, 0x09, 0x71, 0x3c, 0x31, 0xdd,
    0xa0, 0x3c, 0xae, 0x19, 0x96, 0x3c, 0xde, 0x48, 0xf1, 0x3b,
    0x94, 0x82, 0x6c, 0xbc, 0x2f, 0x01, 0x9b, 0xbc, 0x2e, 0x5f,
    0xd5, 0xbb, 0x53, 0xb5, 0x5c, 0x3c, 0x1c, 0xa8, 0x68, 0xbc,
    0x5b, 0x1c, 0x6e, 0x3c, 0xf2, 0xab, 0x82, 0xbc, 0xfc, 0x8b,
    0x39, 0xbc, 0xc4, 0x52, 0xc7, 0x3c, 0x64, 0x87, 0x99, 0xbb,
    0x3f, 0x51, 0x5d, 0x3b, 0x4c, 0x7f, 0xc0, 0xbc, 0x0e, 0x06,
    0x71, 0x3b, 0x99, 0xce, 0x1c, 0xbc, 0x45, 0x08, 0x68, 0x3c,
    0x8a, 0xe4, 0x54, 0x3b, 0xaa, 0x04, 0xdb, 0x3c, 0x91, 0x44,
    0x92, 0xbc, 0xf2, 0x5e, 0x88, 0x3c, 0xb5, 0x1a, 0x52, 0x3c,
    0x8d, 0x2b, 0x1d, 0x3c, 0x6d, 0x63, 0x54, 0x3c, 0xf6, 0x22,
    0xb1, 0xbc, 0xb9, 0x81, 0x39, 0xbc, 0x24, 0xc2, 0x72, 0xba,
    0xf2, 0xea, 0x8c, 0x3c, 0x55, 0xff, 0xe3, 0x3c, 0x92, 0x6d,
    0x3e, 0x3c, 0x3c, 0xea, 0xea, 0x3c, 0xe0, 0x08, 0x62, 0x3c,
    0xeb, 0xe1, 0xa2, 0x3c, 0xf5, 0xa7, 0xd4, 0xbb, 0xb5, 0x2a,
    0x80, 0x3c, 0xd8, 0x8e, 0x3c, 0xbc, 0xf1, 0x3f, 0xea, 0xbb,
    0x9b, 0x41, 0xe8, 0x3a, 0xbe, 0xc6, 0x21, 0xbb, 0xac, 0x86,
    0xa7, 0x3c, 0xd9, 0x58, 0x07, 0xbc, 0xf2, 0xd9, 0x71, 0xba,
    0x75, 0x82, 0x97, 0x3c, 0xff, 0xe2, 0xad, 0x3c, 0xe7, 0xe8,
    0x10, 0x3c, 0x54, 0x12, 0x61, 0x3c, 0x84, 0x02, 0xeb, 0x3c,
    0xf3, 0x0c, 0x9f, 0x3c, 0x35, 0xcf, 0x06, 0x3c, 0xdb, 0xb9,
    0x3c, 0xbb, 0xea, 0x29, 0x13, 0x3c, 0xca, 0x45, 0x26, 0xbc,
    0x93, 0xe8, 0x6b, 0x3c, 0x5d, 0xe0, 0xd0, 0xbc, 0xf3, 0x45,
    0x9d, 0x3b, 0x8c, 0x6a, 0xf7, 0x3a, 0xfb, 0x75, 0x41, 0xbc,
    0x58, 0x38, 0x3b, 0xbb, 0x21, 0x55, 0x92, 0xbb, 0xcc, 0x6b,
    0x78, 0x3a, 0x1f, 0x95, 0xa8, 0xbc, 0xf0, 0x97, 0x04, 0x3b,
    0xd2, 0xd9, 0x57, 0xbc, 0x72, 0x7b, 0x3f, 0x3c, 0x55, 0x74,
    0x89, 0xbc, 0x43, 0xc8, 0x18, 0xbc, 0xba, 0xa7, 0x04, 0xbd,
    0x7e, 0x38, 0xf0, 0xbc, 0x07, 0x27, 0xa0, 0x3b, 0x16, 0xeb,
    0xce, 0xbb, 0x95, 0x78, 0xde, 0xbb, 0x59, 0x19, 0x90, 0xbc,
    0xcf, 0xf4, 0xb6, 0xbc, 0x92, 0x77, 0x7b, 0x3c, 0x13, 0xc6,
    0xb0, 0x3b, 0x7d, 0x40, 0x0a, 0x3c, 0x74, 0x1d, 0x18, 0x3b,
    0xd8, 0xa5, 0xe6, 0xbc, 0xfc, 0x82, 0x0a, 0xbd, 0x8d, 0x09,
    0xa0, 0xbb, 0xd5, 0x23, 0x2d, 0x3b, 0x82, 0x5c, 0x38, 0xbc,
    0xd0, 0x0e, 0x51, 0x3c, 0x49, 0xbc, 0xd4, 0x3b, 0x3f, 0x03,
    0xac, 0x3c, 0xba, 0xe4, 0xc6, 0xbc, 0xdd, 0x4b, 0xed, 0xbc,
    0x4f, 0x75, 0x82, 0xbb, 0x74, 0x04, 0xd9, 0x3b, 0x7a, 0x9c,
    0x3b, 0x3c, 0xda, 0x0a, 0x5d, 0x3c, 0x9b, 0x29, 0x7c, 0x3c,
    0xb9, 0xb5, 0x13, 0x3c, 0x56, 0x5b, 0xaa, 0xbc, 0x67, 0x98,
    0x65, 0x3c, 0x2d, 0x0b, 0x80, 0xbb, 0xa1, 0xac, 0x4b, 0x3c,
    0x9a, 0x96, 0x01, 0x3d, 0x9f, 0xde, 0x02, 0x3d, 0xcf, 0x1b,
    0x89, 0xbc, 0x75, 0x83, 0x66, 0xbc, 0x65, 0x86, 0x39, 0x3b,
    0xb8, 0x4a, 0xa3, 0x3c, 0xb4, 0x4e, 0xbd, 0xbb, 0x37, 0xa2,
    0x9e, 0x3b, 0xcf, 0x69, 0x6f, 0xbb, 0x03, 0x8c, 0x6a, 0x3c,
    0x85, 0xdb, 0x08, 0xbc, 0x6d, 0xd0, 0x81, 0x3c, 0x93, 0x0d,
    0x29, 0x3c, 0xed, 0x43, 0x7d, 0xba, 0x1e, 0x10, 0xe1, 0x3c,
    0xcd, 0x2d, 0xe9, 0xbc, 0xeb, 0x3c, 0xdb, 0x3c, 0xe2, 0x17,
    0xbb, 0x3c, 0x3d, 0xc6, 0x76, 0xbc, 0xe2, 0x7b, 0xb5, 0x3c,
    0x13, 0x74, 0xe3, 0x3b, 0x66, 0x15, 0xbe, 0x3a, 0x5d, 0x2d,
    0x0a, 0x3d, 0x2e, 0x9a, 0xda, 0x3c, 0xd7, 0x63, 0xac, 0xbc,
    0x6b, 0x76, 0x82, 0xbb, 0x1a, 0xce, 0x06, 0x3d, 0x0a, 0x24,
    0xc2, 0xbc, 0x27, 0x25, 0xa6, 0x3b, 0x2a, 0x5e, 0xae, 0x3b,
    0x02, 0xc3, 0x66, 0xbc, 0xe6, 0xd2, 0x8c, 0xbc, 0x04, 0xc2,
    0x1b, 0x3b, 0xe3, 0xb4, 0x89, 0x3c, 0xda, 0xdb, 0xc6, 0x3b,
    0x59, 0x50, 0x02, 0xbb, 0x0b, 0xa4, 0xcc, 0xbc, 0x4c, 0x2c,
    0x7b, 0xbc, 0x3d, 0x24, 0x5d, 0x3c, 0xf2, 0xc2, 0xbb, 0x3b,
    0x40, 0xb7, 0xd5, 0xbc, 0x10, 0x15, 0x83, 0xbc, 0x1c, 0x9f,
    0xaf, 0xbc, 0xb7, 0xf6, 0x40, 0x3a, 0x9e, 0xcd, 0x9f, 0x3c,
    0x0f, 0x7b, 0x6c, 0xbc, 0x36, 0xa3, 0x8f, 0x3c, 0x1e, 0x9f,
    0x6f, 0x3c, 0x0b, 0x38, 0xda, 0x3c, 0x66, 0x93, 0x99, 0xbc,
    0x67, 0xc5, 0x48, 0x3c, 0xb4, 0xfd, 0xa0, 0xbc, 0xd8, 0x95,
    0xfd, 0xbc, 0xe1, 0x52, 0xb2, 0xbc, 0xd5, 0xcf, 0xb0, 0xbc,
    0x3a, 0x26, 0xa5, 0xbc, 0x7d, 0x5b, 0x99, 0xbc, 0x48, 0x62,
    0x88, 0xbc, 0x8a, 0x5c, 0xb0, 0xba, 0xb3, 0x47, 0xf2, 0x3b,
    0x8e, 0x87, 0xdc, 0x3b, 0x2d, 0x0c, 0x8f, 0x3c, 0xd4, 0x2b,
    0x21, 0x3c, 0x68, 0x66, 0xdb, 0xbc, 0x45, 0x2b, 0xd1, 0x3b,
    0x26, 0x49, 0xaf, 0xbc, 0x1e, 0x90, 0x9c, 0x3c, 0xe7, 0xc7,
    0x01, 0x3c, 0x15, 0x3a, 0x26, 0xbc, 0x80, 0x8b, 0x3c, 0xbc,
    0x5c, 0x68, 0x1c, 0xbc, 0x49, 0xd6, 0x9d, 0xbb, 0x0a, 0x13,
    0x45, 0x3c, 0x87, 0xaf, 0x29, 0x3b, 0x24, 0xf5, 0xc7, 0xbc,
    0x8b, 0xdd, 0x6f, 0xbc, 0x02, 0x3d, 0xab, 0x3c, 0x54, 0xe6,
    0x7c, 0x39, 0xe7, 0x74, 0x85, 0xbb, 0x3f, 0x6a, 0x43, 0x3c,
    0xfc, 0x5b, 0xb4, 0x3b, 0x93, 0xf2, 0xec, 0xba, 0x53, 0x52,
    0xe0, 0x3c, 0x82, 0x5b, 0x09, 0xbd, 0x4f, 0xe4, 0x0c, 0xbd,
    0x60, 0x30, 0x9a, 0xba, 0x0f, 0xc3, 0x36, 0x3c, 0xfb, 0x12,
    0x87, 0x3c, 0xf3, 0x92, 0x60, 0xbc, 0xdd, 0xf7, 0x04, 0xbd,
    0xff, 0x5d, 0xca, 0x3c, 0xa7, 0x9b, 0xce, 0xbc, 0x27, 0xc6,
    0x3d, 0x3c, 0x3b, 0x40, 0x95, 0x3c, 0x32, 0xa8, 0xa2, 0xbb,
    0x08, 0xdf, 0xf4, 0xbc, 0xcb, 0x82, 0x09, 0x3b, 0x1b, 0xf0,
    0x69, 0x3c, 0x99, 0x0a, 0xd9, 0x3c, 0x1f, 0xfe, 0x34, 0x3b,
    0x47, 0x32, 0x09, 0x3c, 0x68, 0xdf, 0x0f, 0x3c, 0x9c, 0x06,
    0x55, 0x3c, 0x69, 0xc9, 0xa0, 0xb9, 0x5a, 0x38, 0xea, 0xbc,
    0xc2, 0xed, 0x8c, 0xbc, 0xc0, 0x1a, 0xa0, 0xbc, 0x40, 0xff,
    0x1c, 0xbc, 0x1a, 0xea, 0x6c, 0xbc, 0x33, 0x09, 0x89, 0xbb,
    0xbf, 0x9a, 0x71, 0xbc, 0x2d, 0x75, 0x7f, 0xbc, 0x53, 0x20,
    0x4e, 0xbc, 0x84, 0x2f, 0x0d, 0xbd, 0xfb, 0xc8, 0x81, 0xbc,
    0x76, 0xa1, 0x24, 0xbc, 0xf3, 0x89, 0x85, 0xbb, 0x7f, 0xaf,
    0x0f, 0xbd, 0x5c, 0x28, 0x54, 0xbc, 0x6e, 0x25, 0x95, 0xbc,
    0x21, 0x1f, 0x6d, 0xbc, 0x22, 0xf8, 0xb9, 0xbb, 0x6e, 0x38,
    0x35, 0x3d, 0xcf, 0xbd, 0xa9, 0xbc, 0x90, 0x2d, 0x2c, 0xbc,
    0x57, 0xbd, 0xe8, 0xbc, 0x27, 0x03, 0xad, 0x3b, 0xa1, 0x1e,
    0xa9, 0x3c, 0x09, 0xe2, 0xcb, 0x3c, 0xf1, 0xed, 0xd6, 0x3c,
    0x40, 0x49, 0xa1, 0xbc, 0x34, 0x63, 0xa2, 0xbc, 0x84, 0xd6,
    0xd6, 0xbc, 0xfb, 0x52, 0xd8, 0x3b, 0x61, 0x5d, 0xb4, 0xbc,
    0xcc, 0x79, 0x46, 0x3c, 0xcf, 0x78, 0x2b, 0x3c, 0xcf, 0xa9,
    0x44, 0x3c, 0x09, 0x5d, 0x8a, 0x3c, 0xea, 0x88, 0xd1, 0xbb,
    0xab, 0x1a, 0x22, 0x3b, 0x6a, 0x89, 0x6a, 0x3c, 0xc8, 0xcd,
    0x76, 0xbb, 0x5c, 0x77, 0x57, 0xbc, 0x7f, 0xb5, 0x0e, 0x3d,
    0x2e, 0x09, 0xa7, 0xbb, 0x5f, 0x8f, 0x10, 0xbc, 0xf6, 0xfc,
    0x17, 0xbb, 0xc7, 0x1a, 0xa0, 0x3b, 0xda, 0x95, 0xae, 0xbb,
    0x9b, 0x7d, 0xa3, 0x3c, 0xd1, 0xbf, 0xb6, 0xbb, 0xd1, 0x46,
    0x60, 0xbc, 0xa5, 0x3a, 0x8d, 0x3c, 0x6b, 0x41, 0x87, 0xbb,
    0x1e, 0x6e, 0xb1, 0x3c, 0x3d, 0xa2, 0xa5, 0xbb, 0x0a, 0xd8,
    0x50, 0xbb, 0x06, 0x2e, 0xce, 0x39, 0x34, 0x83, 0x8f, 0x3c,
    0xf8, 0x67, 0x17, 0xbb, 0xf9, 0x8b, 0x99, 0xbc, 0x2f, 0xe4,
    0x00, 0xbc, 0x1d, 0xc2, 0x1b, 0x3c, 0x34, 0xd3, 0xba, 0x3a,
    0x32, 0x05, 0x3a, 0x3a, 0x7e, 0x4b, 0xaf, 0xbc, 0xaf, 0x91,
    0x92, 0x3c, 0x25, 0xa7, 0x90, 0x3b, 0xff, 0xa1, 0xd8, 0x3c,
    0x41, 0x38, 0xdf, 0x3c, 0xd0, 0x3d, 0x39, 0x3c, 0x70, 0xea,
    0x42, 0x3c, 0x55, 0xe4, 0x6e, 0x3c, 0x3f, 0x79, 0x20, 0xbc,
    0xff, 0x4d, 0xb8, 0x3b, 0x0f, 0xef, 0x16, 0x3c, 0xc9, 0xaa,
    0x18, 0x3d, 0xa5, 0xfc, 0x95, 0x3c, 0xdc, 0xce, 0xcd, 0x3b,
    0xf9, 0x10, 0xa6, 0xbb, 0x8b, 0xcd, 0x8c, 0x39, 0xe8, 0xc2,
    0x02, 0x3d, 0x53, 0xb5, 0xd7, 0x3b, 0x67, 0x66, 0x42, 0xbc,
    0xb6, 0x1e, 0x5f, 0x3c, 0x80, 0x17, 0xaa, 0x3c, 0xa6, 0x9f,
    0x94, 0xba, 0x9d, 0xd8, 0x81, 0xbb, 0xcc, 0x9a, 0x49, 0x3c,
    0x65, 0x7e, 0x3f, 0x3c, 0x59, 0x90, 0x7e, 0x3c, 0x8e, 0x85,
    0x05, 0x3d, 0xbd, 0x5b, 0x2d, 0x3a, 0xb8, 0xf9, 0xe6, 0xbb,
    0x04, 0x88, 0x18, 0xba, 0x95, 0xf3, 0xb2, 0x3c, 0x22, 0x81,
    0x9e, 0xbc, 0x7d, 0xad, 0x71, 0xbb, 0xf1, 0x0c, 0x60, 0x3c,
    0x25, 0x36, 0xc7, 0xbc, 0x11, 0xcf, 0x36, 0x3b, 0x0f, 0xe0,
    0xf6, 0x3c, 0x8d, 0xd0, 0x35, 0xbc, 0x2b, 0x5e, 0xab, 0xbc,
    0x6c, 0xe6, 0xbe, 0xbc, 0x22, 0x51, 0x8a, 0x3c, 0xd5, 0xc7,
    0xa8, 0xbc, 0xd5, 0x0d, 0x0c, 0x3b, 0x93, 0xd2, 0x83, 0x3b,
    0x7b, 0xb5, 0xf5, 0xbb, 0x9d, 0x28, 0xa2, 0x3b, 0x6a, 0x19,
    0x75, 0xbc, 0xd9, 0x6d, 0x89, 0x3c, 0xd5, 0x1f, 0xc0, 0xbc,
    0xac, 0x45, 0x91, 0xbb, 0x91, 0xfe, 0x6d, 0x3a, 0xd7, 0xdc,
    0x97, 0x3c, 0x0d, 0x24, 0x2c, 0xbd, 0x52, 0x03, 0xcc, 0xbc,
    0x63, 0xac, 0xbf, 0xbc, 0xc4, 0xdf, 0x93, 0xbc, 0xc6, 0x5f,
    0x93, 0x3c, 0x27, 0xa5, 0xed, 0xbb, 0x11, 0xce, 0x9f, 0xbc,
    0x09, 0xf8, 0xb4, 0xbb, 0xab, 0x21, 0xb9, 0x3c, 0xd2, 0x6b,
    0x54, 0xbc, 0x42, 0x0a, 0xa1, 0xbb, 0x12, 0xe4, 0xab, 0xbc,
    0x9d, 0x26, 0xdc, 0xbc, 0xd1, 0x3b, 0x08, 0xbc, 0xe0, 0x94,
    0x23, 0x3c, 0x52, 0x77, 0x8e, 0x3c, 0xd3, 0x78, 0x95, 0xbc,
    0x1c, 0x69, 0x7d, 0x3c, 0xc4, 0x5d, 0xd1, 0xbc, 0x6a, 0x2c,
    0xeb, 0xbc, 0xc6, 0x64, 0x26, 0xbc, 0x49, 0x26, 0x8e, 0xbc,
    0x59, 0x0b, 0xae, 0x3c, 0x94, 0x2a, 0x49, 0xbb, 0x97, 0xbf,
    0xc9, 0x3b, 0x36, 0x6b, 0x87, 0xbc, 0x08, 0xad, 0x68, 0xbb,
    0x77, 0x36, 0xe1, 0xbc, 0x70, 0x31, 0x96, 0x3c, 0x47, 0x19,
    0xfd, 0xbb, 0x20, 0xf8, 0x8d, 0xbb, 0x65, 0x0a, 0xaa, 0x3c,
    0x83, 0x0c, 0x1d, 0xbc, 0x54, 0x9c, 0x8b, 0x3b, 0x75, 0xe8,
    0x7c, 0xbc, 0x13, 0x37, 0x32, 0x3c, 0x5a, 0x33, 0x26, 0xbc,
    0x08, 0xa6, 0x7a, 0xbc, 0x70, 0x5c, 0x04, 0x3d, 0xde, 0x1d,
    0x97, 0xba, 0xf0, 0x0f, 0x57, 0x3c, 0x3f, 0x37, 0xa0, 0xbc,
    0xdd, 0xed, 0x85, 0xbc, 0xb4, 0x0e, 0x23, 0x3c, 0xde, 0xd8,
    0xbb, 0xbc, 0xa9, 0xe9, 0xef, 0x3b, 0x9c, 0x8c, 0x61, 0xbc,
    0x77, 0x98, 0xf6, 0x3a, 0x09, 0xad, 0xe5, 0x3c, 0xe3, 0x0b,
    0xf0, 0xbc, 0x4f, 0x4d, 0x35, 0xbb, 0xaf, 0x2d, 0x18, 0xbd,
    0x3e, 0x22, 0xfc, 0xbc, 0xe4, 0x6d, 0x96, 0xbc, 0x14, 0xba,
    0xb4, 0x3b, 0x18, 0xf5, 0xaf, 0xba, 0xee, 0x9f, 0x87, 0xbc,
    0x2d, 0xa0, 0x26, 0x3b, 0xef, 0xb0, 0xea, 0xbc, 0x4c, 0x2f,
    0x1c, 0x3c, 0xc0, 0xbe, 0x6b, 0xbc, 0x25, 0x0f, 0xad, 0xbb,
    0x4c, 0x42, 0xb5, 0x3c, 0x03, 0xf4, 0xab, 0xbc, 0x3d, 0x94,
    0x08, 0xbb, 0xe8, 0xfc, 0x88, 0xbc, 0xdd, 0xe5, 0x62, 0xbb,
    0x21, 0xb3, 0x81, 0x3b, 0x32, 0x30, 0xb1, 0x3c, 0xda, 0x8c,
    0x73, 0x3c, 0x38, 0x36, 0x88, 0xbc, 0x55, 0x71, 0xc2, 0xba,
    0xa1, 0x21, 0xc0, 0x39, 0x1b, 0x5b, 0xb9, 0xbc, 0x27, 0x73,
    0xd4, 0xbc, 0x1e, 0x65, 0xf6, 0xbb, 0xf9, 0x87, 0xb3, 0xbc,
    0x7a, 0xda, 0x87, 0xba, 0x01, 0xa0, 0x01, 0xbc, 0xc2, 0x30,
    0x8c, 0x3c, 0x26, 0x86, 0xaa, 0x3c, 0x67, 0x3c, 0x0f, 0x3b,
    0x30, 0xa5, 0x33, 0xbc, 0x26, 0x84, 0x41, 0x3c, 0xc9, 0x91,
    0x21, 0x3c, 0x17, 0x64, 0x67, 0x3c, 0x3c, 0x47, 0xac, 0x3c,
    0xdb, 0x08, 0xf9, 0xbc, 0x6e, 0xbd, 0x91, 0x3c, 0x8a, 0x22,
    0x86, 0xbb, 0xc6, 0x46, 0xac, 0xbb, 0x76, 0x8f, 0x6d, 0x3c,
    0xd9, 0x17, 0x01, 0x3d, 0xe2, 0x09, 0xbb, 0x3b, 0x4c, 0x92,
    0xce, 0xbc, 0x4a, 0x82, 0x94, 0x3c, 0x69, 0x16, 0x56, 0xbc,
    0xdf, 0xeb, 0x9a, 0xbc, 0xf3, 0xe7, 0xbd, 0x3c, 0x5b, 0xaa,
    0x69, 0xbb, 0xc2, 0x4a, 0x16, 0x3c, 0x86, 0x05, 0xa0, 0xbc,
    0xb5, 0x0b, 0xd4, 0xbb, 0x3f, 0x88, 0x66, 0x3b, 0x37, 0x8f,
    0x80, 0x3b, 0xd2, 0xd8, 0xa3, 0xbc, 0xe0, 0x9a, 0x08, 0xbc,
    0x69, 0xd5, 0xa4, 0xbc, 0x05, 0xc0, 0xb6, 0x3c, 0xde, 0xa2,
    0x67, 0x3c, 0xd2, 0x23, 0x47, 0x3c, 0x8f, 0x17, 0xb2, 0x3b,
    0xbb, 0x0b, 0x81, 0x3b, 0xca, 0x0b, 0x32, 0x3c, 0x26, 0x03,
    0xad, 0xbb, 0x20, 0xd7, 0x9e, 0x3c, 0xd3, 0x24, 0x3e, 0xbb,
    0x90, 0xf6, 0xc5, 0x3c, 0xdf, 0x4f, 0xe2, 0xba, 0x84, 0x60,
    0xb7, 0x3c, 0x2d, 0x8e, 0x94, 0xbc, 0xb1, 0xc5, 0x3b, 0xba,
    0x46, 0xe1, 0x2e, 0xbb, 0x3a, 0x6b, 0x84, 0xbc, 0xf9, 0x3c,
    0xea, 0x3b, 0xec, 0x92, 0x04, 0xbc, 0x38, 0x1b, 0x3d, 0xbc,
    0xe9, 0x95, 0x7b, 0x3b, 0x97, 0x81, 0x1a, 0x3a, 0xe8, 0x4e,
    0x96, 0xbc, 0xc3, 0xe5, 0xa0, 0x3c, 0x18, 0x89, 0xb4, 0x3c,
    0xe0, 0x72, 0xc1, 0xbb, 0x77, 0xd5, 0x93, 0xbc, 0xc7, 0xc6,
    0x8d, 0x3c, 0x75, 0x01, 0x05, 0x3b, 0xeb, 0x41, 0x69, 0xbc,
    0x10, 0x06, 0x1e, 0x3c, 0x80, 0xfd, 0x0f, 0xbd, 0xa4, 0x72,
    0x84, 0x3c, 0x75, 0xe8, 0xba, 0x3b, 0xa0, 0x75, 0x45, 0xbc,
    0xaa, 0x5b, 0xb5, 0x3a, 0x42, 0xd3, 0xb0, 0x3c, 0x4b, 0xbc,
    0x10, 0xbd, 0xde, 0x51, 0xec, 0xbc, 0x71, 0x26, 0xf5, 0xbc,
    0x88, 0xaa, 0xba, 0x3b, 0xd2, 0x83, 0x6b, 0xbc, 0x03, 0x4b,
    0x8d, 0xbc, 0xb3, 0x47, 0x15, 0x3c, 0x6d, 0x9b, 0xee, 0x3b,
    0x9e, 0xce, 0xf1, 0xba, 0xdd, 0xbe, 0x0f, 0xbd, 0x6a, 0x74,
    0x2b, 0xbd, 0x3e, 0x08, 0x35, 0x3c, 0x1a, 0xcf, 0x0e, 0xbd,
    0x5d, 0xf1, 0x06, 0xbd, 0x84, 0x33, 0x25, 0xbd, 0x46, 0x3a,
    0x0d, 0x3d, 0xa9, 0x79, 0x5b, 0xbc, 0xf9, 0xe8, 0xd5, 0xbc,
    0x36, 0x19, 0xb3, 0xbc, 0x2e, 0xc2, 0x20, 0x3b, 0xf3, 0x23,
    0xcd, 0x3a, 0x1a, 0xe6, 0xf7, 0xbc, 0xd8, 0xb5, 0x15, 0x3c,
    0x50, 0xec, 0x8c, 0x3c, 0x1b, 0x0d, 0x16, 0xbd, 0x0b, 0x36,
    0x00, 0xbd, 0xe4, 0x7f, 0xee, 0x3b, 0x20, 0x5f, 0xdc, 0x3a,
    0xf5, 0xa7, 0x79, 0x3c, 0x1c, 0x52, 0xcc, 0xbc, 0x89, 0x45,
    0x9f, 0xbb, 0x7a, 0xd4, 0x5e, 0x3c, 0x39, 0x38, 0xd5, 0xbb,
    0xce, 0xed, 0x7d, 0x3c, 0xbc, 0xff, 0xc4, 0xbc, 0xe7, 0x70,
    0x8c, 0xbc, 0x77, 0xfa, 0xbd, 0x3b, 0x21, 0x67, 0x91, 0xbc,
    0x6a, 0xcf, 0x97, 0xbc, 0x25, 0xd1, 0x00, 0xbb, 0xc0, 0x1c,
    0x4b, 0xbc, 0x42, 0x2a, 0x9c, 0x3c, 0xe2, 0x2e, 0x29, 0x3d,
    0xa6, 0x01, 0xd6, 0xbb, 0xf9, 0x55, 0x6e, 0x3d, 0xb5, 0x37,
    0x9a, 0xbc, 0xf9, 0xf4, 0x29, 0xbc, 0x1c, 0x6c, 0x76, 0x3c,
    0xdf, 0xe8, 0xcd, 0x3c, 0xf8, 0x19, 0x06, 0x3d, 0xed, 0x2d,
    0xd9, 0x3c, 0x5a, 0x76, 0xe2, 0x3b, 0x80, 0x9c, 0xdb, 0x3a,
    0xc6, 0x36, 0x06, 0xbc, 0x18, 0xb1, 0x2b, 0x3c, 0xe2, 0xb7,
    0xe3, 0xb9, 0x10, 0x66, 0x82, 0xbb, 0x1f, 0x7e, 0x9f, 0x3c,
    0x24, 0x94, 0xeb, 0x3b, 0x53, 0xaf, 0x10, 0x3b, 0xf7, 0x05,
    0x13, 0xbc, 0x76, 0x89, 0x67, 0xbc, 0xa3, 0x62, 0x28, 0xbd,
    0x37, 0x17, 0xe4, 0x3c, 0xf4, 0x0b, 0xdc, 0x3a, 0x80, 0x9a,
    0x95, 0x3c, 0xce, 0xa7, 0x03, 0xbb, 0xa1, 0x0c, 0x49, 0x3b,
    0x7b, 0x0d, 0xe3, 0xbb, 0x56, 0xff, 0xda, 0x3c, 0x63, 0x16,
    0x1b, 0x3c, 0xd8, 0x8a, 0xb3, 0x3b, 0x76, 0xa5, 0x92, 0x3c,
    0x88, 0x6c, 0xba, 0x3a, 0x7a, 0x56, 0x75, 0x3c, 0xb4, 0x0a,
    0x9a, 0x3b, 0x3a, 0xb4, 0x8e, 0x3c, 0x2c, 0x60, 0x5b, 0x3c,
    0x1b, 0x45, 0x8f, 0xbc, 0x12, 0x6d, 0x09, 0x3c, 0xa6, 0xf8,
    0x8a, 0x3c, 0x89, 0x14, 0xf3, 0x3c, 0x4a, 0xea, 0xbb, 0xbc,
    0x07, 0xf6, 0xae, 0x3b, 0x8f, 0x4f, 0x23, 0xbb, 0x80, 0xc7,
    0x04, 0xba, 0xfd, 0xf9, 0xac, 0x3c, 0xb2, 0x44, 0x90, 0xba,
    0xeb, 0x83, 0xcf, 0x3b, 0xe4, 0x52, 0x1c, 0x3b, 0xd9, 0x6f,
    0x3d, 0xbb, 0xb5, 0x34, 0x21, 0x3b, 0x5c, 0xe4, 0x9b, 0x3b,
    0x80, 0x32, 0x0f, 0x3d, 0xbd, 0x01, 0x8a, 0xbb, 0xe1, 0x4e,
    0x2e, 0x3d, 0x76, 0xcf, 0x07, 0xbc, 0x74, 0xd8, 0x5f, 0xbc,
    0x10, 0x98, 0x11, 0xbd, 0x35, 0xfd, 0x69, 0xbb, 0xcc, 0x4c,
    0x2b, 0x3a, 0x69, 0x27, 0x08, 0x3c, 0xa4, 0x16, 0xd8, 0xbc,
    0x16, 0xdc, 0x99, 0xbc, 0x13, 0x6c, 0x3a, 0x3c, 0xa4, 0x32,
    0x3a, 0xbc, 0x7e, 0x68, 0x04, 0xbd, 0xc0, 0x42, 0x05, 0x3d,
    0xf7, 0x35, 0x8a, 0xbc, 0x29, 0xa2, 0x5f, 0x3c, 0x8c, 0xaf,
    0xd8, 0xbc, 0x2f, 0x33, 0xbb, 0x3c, 0x50, 0x4e, 0xd5, 0x3c,
    0x2c, 0x9c, 0x60, 0x3b, 0xfc, 0x56, 0x1e, 0xbc, 0x6f, 0x6a,
    0xfb, 0x3c, 0x39, 0x62, 0x0c, 0x3c, 0x42, 0x11, 0xbf, 0xbc,
    0x13, 0x90, 0xc8, 0x3c, 0x64, 0x07, 0x46, 0x3c, 0x33, 0x2b,
    0xa0, 0xbc, 0xe9, 0xf9, 0x00, 0x3d, 0x83, 0xd3, 0x0f, 0x3c,
    0x48, 0xb7, 0x6b, 0xbc, 0x8c, 0x6c, 0x46, 0xbc, 0x5e, 0x9e,
    0xfa, 0xbc, 0xa2, 0xbe, 0x20, 0xbc, 0x03, 0xc2, 0x87, 0x3c,
    0x14, 0x2f, 0x61, 0x3c, 0xd5, 0x37, 0x1c, 0x3b, 0x06, 0x01,
    0xac, 0xbc, 0x8a, 0xfb, 0xad, 0xbc, 0x0d, 0xe7, 0x08, 0x3c,
    0xcd, 0x8b, 0x4b, 0x37, 0xce, 0xac, 0x5f, 0xbc, 0x6f, 0x9d,
    0xa1, 0xbc, 0xec, 0x44, 0x08, 0xbd, 0x44, 0xcb, 0xdc, 0x3c,
    0x48, 0xd6, 0xf6, 0x3c, 0x88, 0xfd, 0xb1, 0xbb, 0xce, 0x6e,
    0xaa, 0x3c, 0x9b, 0x36, 0x28, 0xbd, 0xfe, 0x89, 0x8f, 0xbc,
    0xdf, 0xc7, 0x70, 0x3c, 0xf7, 0x54, 0xe5, 0x3c, 0xbb, 0xc4,
    0x8a, 0xbc, 0xb3, 0x13, 0x84, 0xbc, 0x8c, 0x9a, 0x22, 0x3c,
    0xb1, 0xdf, 0x05, 0xbd, 0x3d, 0x72, 0xed, 0x3b, 0x8b, 0x03,
    0x70, 0x3b, 0x45, 0x21, 0x56, 0x3a, 0x08, 0x89, 0xeb, 0xbb,
    0xa5, 0x60, 0xc1, 0x3c, 0x21, 0x96, 0xbb, 0x3c, 0x1b, 0x02,
    0xd6, 0xbc, 0x0e, 0x66, 0xc2, 0x3b, 0xb3, 0xc6, 0xb7, 0x3c,
    0x67, 0xc5, 0x9c, 0xbc, 0xe0, 0x4c, 0x49, 0x3d, 0xe7, 0xc4,
    0xe4, 0x3b, 0x86, 0xe4, 0xa0, 0x3c, 0x1b, 0xbf, 0x49, 0x3b,
    0x4a, 0xcd, 0x28, 0x3d, 0x3a, 0x53, 0xd1, 0xbb, 0xc8, 0x62,
    0xad, 0x3c, 0xcf, 0xa3, 0xc1, 0x3c, 0x9e, 0x00, 0xb6, 0x3c,
    0xfc, 0x49, 0x71, 0xbc, 0x19, 0x6c, 0x01, 0xbc, 0x66, 0xcc,
    0xed, 0xbc, 0x0f, 0x60, 0xa0, 0xbb, 0xec, 0x12, 0x1b, 0x3c,
    0x2a, 0x3a, 0x7c, 0xbc, 0x46, 0x43, 0x0c, 0xbc, 0xd5, 0x41,
    0x35, 0x3b, 0xc1, 0xb0, 0xff, 0xbc, 0x00, 0x4d, 0x04, 0x3c,
    0x19, 0xe2, 0xb2, 0x3c, 0xd0, 0x38, 0x19, 0xbc, 0x75, 0x57,
    0x5d, 0xbc, 0x55, 0xe2, 0xc2, 0xbc, 0xcb, 0x30, 0xa4, 0x3c,
    0x56, 0xa7, 0x06, 0x3c, 0x6c, 0x6f, 0xf2, 0xbb, 0xfe, 0x8d,
    0x31, 0x3c, 0x67, 0x54, 0xc8, 0x3c, 0x00, 0x5d, 0x83, 0xbc,
    0x94, 0x4f, 0xb7, 0xbc, 0xd4, 0x82, 0xde, 0xbb, 0xf5, 0xb9,
    0x66, 0x3b, 0xeb, 0xed, 0xdf, 0x3c, 0x9d, 0xd9, 0x4f, 0x39,
    0xb0, 0x68, 0xaf, 0xbc, 0xe0, 0x06, 0x94, 0x3c, 0x3c, 0x99,
    0xee, 0x3c, 0xab, 0x47, 0x9a, 0xbc, 0x02, 0xa7, 0x0e, 0xbc,
    0xcc, 0x6b, 0xba, 0x3c, 0x66, 0xcc, 0x1e, 0xbc, 0x8f, 0x29,
    0xd8, 0xbc, 0xdf, 0xac, 0x99, 0xbb, 0x18, 0x4f, 0xb4, 0x3b,
    0x25, 0x0d, 0xda, 0xbb, 0x9a, 0x41, 0x8c, 0x3c, 0x3f, 0xb3,
    0xed, 0x3c, 0x13, 0x94, 0x5f, 0x3b, 0xbd, 0xa7, 0x4f, 0x3c,
    0x80, 0x48, 0x9b, 0xb9, 0x52, 0x1f, 0x8a, 0xbc, 0x73, 0x41,
    0x52, 0x3c, 0xe0, 0xcc, 0xc2, 0x39, 0xc8, 0xb6, 0xdf, 0x3c,
    0x98, 0x27, 0x65, 0xbc, 0xa6, 0x92, 0xaf, 0xbc, 0x84, 0xa5,
    0x39, 0xbc, 0xca, 0xfe, 0x30, 0x3c, 0x50, 0x1d, 0x09, 0xbd,
    0xda, 0x94, 0xca, 0x3b, 0xdb, 0x03, 0xac, 0x3c, 0xc5, 0x39,
    0x86, 0xbc, 0xa7, 0x32, 0x02, 0xbb, 0xf9, 0x5b, 0xf6, 0xbc,
    0xbd, 0x7f, 0x2d, 0x3c, 0x90, 0x3f, 0xc2, 0xbc, 0x78, 0x97,
    0x8d, 0xbc, 0x3f, 0x26, 0xa4, 0x3c, 0xb4, 0xcc, 0x15, 0x3b,
    0x68, 0x8a, 0x4e, 0xbc, 0x85, 0x0a, 0x06, 0x3d, 0xd3, 0x5f,
    0x6e, 0x3b, 0x52, 0xfc, 0xe1, 0xbc, 0x38, 0xb8, 0xca, 0xbc,
    0x5f, 0xb0, 0x49, 0x3b, 0xde, 0xf5, 0xdf, 0x3a, 0x08, 0x22,
    0x64, 0xbc, 0x81, 0x7d, 0xe6, 0xbb, 0x4c, 0x46, 0xa8, 0x3b,
    0x5a, 0x52, 0x9c, 0xbc, 0x10, 0x59, 0x9b, 0xbc, 0x78, 0x1d,
    0x5d, 0x3c, 0x63, 0xbe, 0x90, 0xbc, 0xa1, 0xc4, 0x85, 0xbb,
    0xe2, 0x2c, 0xc5, 0x3c, 0xce, 0x6a, 0x93, 0x3c, 0xff, 0xd4,
    0xe1, 0x3b, 0xc1, 0xbb, 0x9e, 0x3a, 0x1c, 0x9c, 0xbd, 0x3b,
    0x90, 0x40, 0xe3, 0x3c, 0xbf, 0x2a, 0x86, 0xbb, 0x65, 0x24,
    0x96, 0xbb, 0x34, 0x08, 0xf3, 0xbb, 0x52, 0x57, 0xba, 0xbc,
    0xb1, 0x16, 0x30, 0x3c, 0xb9, 0x1a, 0xfd, 0x3b, 0x7f, 0x6f,
    0xca, 0x3c, 0xa6, 0x76, 0xcf, 0x39, 0x59, 0xc2, 0x12, 0xbc,
    0x77, 0x83, 0x93, 0xbb, 0x52, 0x72, 0xa5, 0xbc, 0xd5, 0xd9,
    0x56, 0xbb, 0x23, 0x3a, 0x37, 0x3a, 0xa9, 0xaa, 0x11, 0x3b,
    0xa9, 0x9c, 0x28, 0xbb, 0x31, 0xc6, 0x8d, 0x3c, 0x22, 0xa5,
    0x25, 0xbd, 0x9f, 0x33, 0x19, 0xbc, 0x35, 0x1a, 0x8f, 0xbc,
    0x30, 0x04, 0xb6, 0xbc, 0x10, 0xaf, 0x84, 0x3c, 0x17, 0xf8,
    0xae, 0x3b, 0x0f, 0xf4, 0x7c, 0xbc, 0xd8, 0x61, 0xba, 0x3b,
    0xa9, 0x29, 0xf5, 0x3b, 0xed, 0x66, 0x43, 0xbc, 0xcd, 0x4e,
    0x14, 0x3c, 0x90, 0x2e, 0xf0, 0xbc, 0x74, 0x76, 0x2c, 0xbd,
    0x8d, 0x7b, 0x47, 0x3c, 0xdd, 0x43, 0x55, 0xb8, 0x23, 0xe0,
    0xfc, 0xbb, 0x33, 0x22, 0xa8, 0xbb, 0x76, 0x54, 0x4e, 0xbd,
    0xc6, 0xbd, 0x81, 0xbc, 0x48, 0x3d, 0xda, 0xbc, 0xee, 0xf8,
    0xfd, 0xbc, 0x9e, 0x62, 0xc8, 0xbc, 0x3c, 0x67, 0xf0, 0xba,
    0xe7, 0x1f, 0x99, 0x3c, 0x14, 0xe8, 0xdc, 0xba, 0x29, 0x8e,
    0xf3, 0xbc, 0x72, 0x4f, 0x1d, 0xbc, 0xf6, 0xe9, 0x4d, 0x3b,
    0x57, 0x3c, 0x29, 0xbc, 0xb9, 0x76, 0x25, 0x3c, 0xe9, 0xbd,
    0x61, 0xbc, 0xa2, 0x36, 0x1d, 0xbc, 0x43, 0x60, 0x07, 0x3c,
    0x2f, 0x22, 0x42, 0x3b, 0xc5, 0x78, 0x44, 0xbc, 0xcb, 0x93,
    0x4b, 0x3d, 0xec, 0xad, 0x3a, 0xbc, 0x9e, 0x4a, 0xb0, 0xbc,
    0x7b, 0xb5, 0x41, 0x3c, 0xb9, 0xcb, 0x76, 0x3c, 0x76, 0x4f,
    0x05, 0x3d, 0x63, 0x2e, 0xd0, 0xbb, 0x1f, 0x93, 0xb3, 0xbc,
    0xcc, 0x39, 0x21, 0x3c, 0xc2, 0xb8, 0xb3, 0x3a, 0x51, 0xdc,
    0x84, 0x3c, 0x73, 0xde, 0x14, 0xbb, 0x03, 0x01, 0x08, 0xbd,
    0xae, 0xb1, 0xca, 0x3b, 0x5b, 0x99, 0x37, 0xbc, 0x0d, 0xb0,
    0x5e, 0xbc, 0x43, 0xdb, 0xc7, 0xb9, 0x4e, 0x51, 0x5e, 0x3c,
    0x10, 0xa7, 0x59, 0x3b, 0x60, 0xa2, 0xa2, 0x3c, 0x1e, 0xe6,
    0x25, 0x3c, 0x66, 0x5b, 0x58, 0xbc, 0xb7, 0xde, 0x71, 0xbc,
    0x88, 0x9e, 0xa1, 0x3c, 0x21, 0x07, 0xa0, 0xbc, 0xe5, 0x97,
    0x2e, 0xb6, 0x3f, 0x37, 0xa5, 0x3c, 0xd6, 0xcf, 0x5c, 0x3c,
    0x0a, 0x1c, 0x41, 0x3c, 0xfc, 0x1b, 0x36, 0x3b, 0x6c, 0x99,
    0xe4, 0x3b, 0xe2, 0x12, 0xc8, 0x3c, 0xeb, 0x7c, 0x8a, 0xbc,
    0x33, 0x5b, 0x72, 0x3c, 0xc4, 0x4e, 0x78, 0xbb, 0x27, 0x0f,
    0x01, 0x3c, 0x51, 0x22, 0x95, 0xbc, 0x1e, 0x05, 0x01, 0xbc,
    0x53, 0x6c, 0xc4, 0x3a, 0xb7, 0x6f, 0x8e, 0x3c, 0x2f, 0x8a,
    0xd2, 0x3b, 0x3d, 0x18, 0xdb, 0x3c, 0xb7, 0x6c, 0x9b, 0x3c,
    0x81, 0x26, 0x19, 0x3c, 0xd2, 0xef, 0xf4, 0xbc, 0x19, 0x51,
    0xd8, 0xbc, 0x64, 0x88, 0xeb, 0xbb, 0x16, 0x09, 0x44, 0x3a,
    0xef, 0x28, 0x87, 0xbc, 0xa7, 0xe4, 0xa1, 0x3c, 0x0c, 0xe6,
    0xc3, 0x3b, 0xe7, 0x36, 0xae, 0xbb, 0x05, 0x80, 0xc1, 0xbc,
    0x17, 0x0c, 0xfd, 0xbc, 0x53, 0x0b, 0x99, 0x3c, 0xf7, 0xa6,
    0xe7, 0xbc, 0x4b, 0xbc, 0xde, 0xbb, 0xed, 0x7c, 0x26, 0xbc,
    0xdd, 0x41, 0x46, 0x3c, 0xd9, 0x7c, 0x8e, 0xbb, 0x1e, 0x47,
    0x62, 0xbc, 0xc0, 0x72, 0xb6, 0xbc, 0xe0, 0x12, 0x3a, 0x3a,
    0xc7, 0xf1, 0x2f, 0xbc, 0xaf, 0x64, 0x87, 0xbc, 0xc5, 0x45,
    0xae, 0x3c, 0x98, 0xda, 0xc1, 0x3c, 0xa3, 0x70, 0x23, 0x3d,
    0xaa, 0xd1, 0xdd, 0x3c, 0x65, 0x0a, 0x5a, 0xbc, 0xba, 0x51,
    0x9a, 0xbc, 0x57, 0x87, 0xd4, 0x3c, 0x5f, 0x45, 0x9b, 0xbc,
    0x10, 0xd3, 0x9b, 0xbc, 0x16, 0xd1, 0x5d, 0x3c, 0x26, 0x4a,
    0x0c, 0xbd, 0x1b, 0xd5, 0x6c, 0xbc, 0x41, 0x68, 0x92, 0x3b,
    0x42, 0xca, 0x17, 0xbd, 0x41, 0x66, 0x1e, 0xbb, 0xbf, 0x47,
    0x7c, 0x3c, 0xa4, 0x33, 0xb9, 0xbb, 0xce, 0x97, 0xc1, 0xbc,
    0xe0, 0x84, 0x0b, 0xbc, 0x77, 0x60, 0x61, 0x3a, 0xae, 0xa4,
    0x8a, 0xbc, 0x40, 0xef, 0xfa, 0x3b, 0x76, 0xf7, 0x1f, 0xbb,
    0xc3, 0xd4, 0xfb, 0x39, 0x98, 0x84, 0x32, 0x3a, 0x95, 0xce,
    0x5e, 0x3a, 0x4c, 0x49, 0x6e, 0x3c, 0xce, 0x06, 0x4c, 0xbb,
    0x67, 0x06, 0xb2, 0xbc, 0x55, 0x14, 0x0a, 0xbd, 0xb4, 0x3f,
    0xe6, 0x3c, 0xae, 0xdc, 0xd0, 0xbc, 0xc1, 0xb0, 0x93, 0xbc,
    0x3c, 0xc3, 0x14, 0xbc, 0x3b, 0x14, 0x61, 0xbb, 0x7b, 0x5a,
    0x6e, 0xbc, 0x1a, 0xd3, 0x94, 0xbc, 0xf7, 0xf6, 0x47, 0x3b,
    0x04, 0xd2, 0x80, 0xbb, 0xaf, 0xd9, 0x0b, 0xbb, 0x88, 0x4d,
    0x58, 0x3c, 0x31, 0x28, 0x83, 0xba, 0xf5, 0x9d, 0x2c, 0x3c,
    0x64, 0x12, 0x52, 0xbc, 0x7b, 0x99, 0xf8, 0x3b, 0xb8, 0xec,
    0x1d, 0xbd, 0x8b, 0xed, 0xcf, 0x3b, 0xf9, 0x75, 0xa9, 0x3a,
    0xc8, 0x1b, 0x95, 0xbc, 0x6d, 0xa1, 0xdd, 0xbb, 0x17, 0x2b,
    0x83, 0x3b, 0xb9, 0x73, 0xd9, 0xbc, 0x89, 0xb5, 0x1f, 0xbc,
    0x59, 0xad, 0x70, 0xbc, 0x2b, 0x61, 0xb5, 0xbc, 0xda, 0xf9,
    0x6f, 0x3b, 0x9b, 0x9c, 0x00, 0x3c, 0x0e, 0x33, 0xc7, 0xbb,
    0x0b, 0x4f, 0x29, 0xbb, 0x53, 0xce, 0xfb, 0xbb, 0x82, 0x39,
    0x13, 0x3c, 0x9c, 0xce, 0x5b, 0xbc, 0xd4, 0xa8, 0x88, 0xba,
    0xe1, 0x1f, 0x0b, 0x3c, 0x80, 0x7f, 0x30, 0xbd, 0x42, 0x85,
    0xb6, 0xbc, 0x5c, 0xea, 0xba, 0xbc, 0xa7, 0xe6, 0x36, 0x3c,
    0xbf, 0xfd, 0x87, 0xbc, 0x9a, 0x5a, 0xb9, 0x3b, 0x3e, 0xe5,
    0x43, 0x3c, 0xd2, 0x04, 0x18, 0x3b, 0x4f, 0x53, 0x99, 0xbc,
    0xb4, 0x46, 0xcc, 0x3c, 0x24, 0x6e, 0x1a, 0xbc, 0x1e, 0x6d,
    0x93, 0x3c, 0x2f, 0x02, 0xca, 0x3b, 0xf4, 0x07, 0xa6, 0xbc,
    0x0a, 0xb4, 0xa3, 0x3b, 0xe1, 0x20, 0x94, 0x3b, 0x69, 0xf0,
    0x3a, 0x3c, 0xd5, 0x77, 0x2b, 0xbd, 0x06, 0xce, 0xdc, 0x3c,
    0xb5, 0xdf, 0x63, 0x3c, 0x23, 0x67, 0xae, 0x3c, 0xa0, 0xa3,
    0xdf, 0x3c, 0x26, 0x68, 0x35, 0xbd, 0x28, 0xc6, 0x7d, 0xbc,
    0x2d, 0x69, 0xd0, 0x3c, 0x19, 0x40, 0x97, 0x3c, 0xbe, 0xb3,
    0xd7, 0x3b, 0x64, 0xda, 0xd0, 0xbb, 0x91, 0x19, 0x8d, 0xbc,
    0xf2, 0x77, 0x42, 0x3c, 0x82, 0xb6, 0x73, 0xbc, 0x39, 0x9b,
    0x51, 0x3c, 0xf9, 0xe9, 0x0f, 0x3c, 0xd5, 0x37, 0x98, 0x3c,
    0x7f, 0xf3, 0x85, 0xba, 0x5b, 0x09, 0x83, 0x3c, 0x67, 0x12,
    0x18, 0xbb, 0x53, 0x60, 0xb7, 0x3c, 0x9a, 0x51, 0x6e, 0x3b,
    0x22, 0xd3, 0x4c, 0xbc, 0x3d, 0xa6, 0xf6, 0xba, 0x6f, 0xe0,
    0x4c, 0xbc, 0xba, 0x9b, 0xf4, 0x3c, 0xb4, 0xfa, 0x2d, 0x3d,
    0x28, 0x5b, 0x19, 0x3c, 0x6a, 0x43, 0x97, 0xbb, 0x7e, 0xbb,
    0x98, 0x3b, 0x50, 0x8b, 0x5a, 0x3c, 0x71, 0x15, 0x4e, 0x3c,
    0x2f, 0x0c, 0xb4, 0x3c, 0xd9, 0x3d, 0xb0, 0x3c, 0x31, 0xad,
    0x05, 0x3d, 0x84, 0x35, 0xce, 0x3c, 0x38, 0x05, 0x16, 0x3d,
    0xf1, 0x90, 0x14, 0x3d, 0xea, 0x73, 0x9c, 0x3c, 0x34, 0x9f,
    0xd6, 0xbc, 0xfe, 0x28, 0x62, 0xbc, 0x4d, 0x69, 0xbf, 0xbc,
    0xf6, 0xe4, 0xaa, 0x3c, 0x5d, 0x09, 0xc6, 0x3c, 0x63, 0x80,
    0xae, 0x3c, 0xa6, 0xe5, 0x81, 0x3a, 0x6c, 0xa2, 0x60, 0x3a,
    0x69, 0x5c, 0x75, 0xbc, 0x0e, 0xb4, 0x9f, 0xbc, 0xed, 0x4e,
    0x06, 0xbc, 0xc7, 0xf5, 0xaa, 0x3b, 0x22, 0xf3, 0x38, 0x3c,
    0x0c, 0xbb, 0xa8, 0xbb, 0x09, 0x13, 0x05, 0x3d, 0xc0, 0x2f,
    0x94, 0xbc, 0xb1, 0x19, 0xd2, 0x3b, 0x92, 0x8b, 0xe2, 0x3c,
    0x87, 0x84, 0x65, 0x3c, 0x8d, 0xdb, 0xc3, 0x3b, 0xf2, 0x1a,
    0x0a, 0xbc, 0x42, 0xf7, 0xe7, 0xbc, 0xa3, 0x9e, 0xf9, 0x3b,
    0x9c, 0x58, 0xf9, 0xbc, 0x4f, 0xa7, 0x9b, 0xbc, 0xff, 0xea,
    0xd7, 0xbc, 0xad, 0x19, 0xbb, 0x3c, 0xca, 0x4c, 0x70, 0x37,
    0xf4, 0x14, 0x89, 0xbc, 0x3a, 0xc7, 0x61, 0xbc, 0xf8, 0x9b,
    0x8d, 0xbc, 0xa4, 0x66, 0xe7, 0xbc, 0xb5, 0xf4, 0x6a, 0xbc,
    0xba, 0x12, 0x81, 0xbc, 0x48, 0x95, 0xd9, 0xbb, 0x7f, 0x0c,
    0xfe, 0xbc, 0x98, 0x42, 0xc9, 0xbc, 0xf8, 0x87, 0x20, 0xbc,
    0x62, 0xe9, 0x35, 0xba, 0xe4, 0x46, 0x0a, 0xbd, 0x82, 0x6f,
    0x88, 0xbc, 0xaa, 0xc5, 0x9d, 0xbc, 0x95, 0x7b, 0xd0, 0x3c,
    0x26, 0xc6, 0x84, 0xbc, 0x53, 0xee, 0x99, 0x3c, 0xc1, 0x86,
    0x06, 0xbd, 0x5e, 0x30, 0x26, 0xbc, 0x24, 0x98, 0xe6, 0xbb,
    0xf4, 0x2c, 0x1c, 0x3c, 0xe8, 0xbb, 0x87, 0x3c, 0xdf, 0xa5,
    0x0d, 0x3b, 0xb2, 0x0a, 0x7d, 0x3c, 0x57, 0x3d, 0xb9, 0x3c,
    0x39, 0x3b, 0xe3, 0xbc, 0x54, 0xf7, 0xc9, 0xbc, 0x09, 0x3a,
    0x70, 0x3a, 0x0f, 0xf6, 0x06, 0x3c, 0x10, 0x78, 0x86, 0x3c,
    0x38, 0xde, 0xdb, 0x3c, 0xbc, 0xb6, 0x7b, 0xbc, 0x14, 0x28,
    0x2a, 0xbc, 0xe2, 0x1f, 0xeb, 0xbc, 0x4f, 0x28, 0xb3, 0x3b,
    0xfb, 0xa0, 0xb3, 0xbc, 0xf3, 0x5c, 0xfb, 0xbc, 0x59, 0x5f,
    0xa6, 0xbc, 0xfc, 0x98, 0x76, 0xbc, 0x13, 0x97, 0x0d, 0x3c,
    0x23, 0xf0, 0x5b, 0xbc, 0x25, 0xdc, 0x53, 0x3a, 0x14, 0x9c,
    0x04, 0xbc, 0xed, 0xd1, 0x62, 0x3d, 0x2e, 0xb5, 0x7d, 0xbc,
    0xc5, 0xcb, 0x44, 0xbc, 0x95, 0xb3, 0xc4, 0xbb, 0xbc, 0x26,
    0x6c, 0x3c, 0xbb, 0x87, 0x79, 0x3c, 0xb7, 0xeb, 0x67, 0x3c,
    0x5c, 0x63, 0x58, 0xbc, 0xae, 0x59, 0xf8, 0xbc, 0xcb, 0x72,
    0xd2, 0x3b, 0xa6, 0xca, 0xf6, 0x3b, 0xd7, 0x67, 0xcd, 0xbc,
    0x4c, 0x85, 0xe8, 0xbc, 0xe1, 0x72, 0x88, 0x3c, 0x59, 0x08,
    0xab, 0x3c, 0x6c, 0x12, 0x5d, 0xbc, 0xbb, 0x48, 0xe1, 0x3b,
    0xed, 0xcd, 0xe2, 0xbb, 0xbb, 0x3f, 0xe9, 0xbc, 0x2a, 0xa8,
    0x0f, 0x3d, 0x43, 0x61, 0x04, 0x3d, 0x67, 0xbd, 0x4c, 0xbc,
    0x82, 0xa0, 0xf6, 0xbb, 0x3e, 0x50, 0x00, 0xbc, 0x02, 0x2a,
    0x40, 0x3b, 0x2b, 0x43, 0x12, 0x3c, 0x89, 0x71, 0xa5, 0xbc,
    0x0f, 0xb8, 0xb2, 0xbc, 0xfa, 0xa0, 0x30, 0x3c, 0xd3, 0xef,
    0xb3, 0x3c, 0x27, 0x80, 0x39, 0x3c, 0xc4, 0xf9, 0x40, 0xbc,
    0xbb, 0xa1, 0x9e, 0x3c, 0xab, 0xe6, 0xef, 0x3b, 0xc2, 0x55,
    0x3a, 0xbd, 0xb5, 0xad, 0x1c, 0xbc, 0x8d, 0x44, 0x73, 0x3c,
    0x61, 0x7b, 0xc3, 0xbc, 0xe2, 0xdf, 0x00, 0x3c, 0x0f, 0x56,
    0x49, 0xbc, 0x6a, 0x8b, 0x95, 0x3c, 0xc0, 0xed, 0x17, 0xbc,
    0x6d, 0x72, 0x69, 0xbc, 0x6c, 0x69, 0xe7, 0x3b, 0x2c, 0xbf,
    0x18, 0xbd, 0x73, 0x54, 0x85, 0x3c, 0xad, 0xe2, 0xf9, 0xbc,
    0x5a, 0x2c, 0x41, 0xbc, 0x3e, 0x1d, 0xaf, 0xbc, 0x30, 0x6d,
    0x05, 0x3c, 0xfe, 0x14, 0x58, 0x3c, 0xa8, 0xba, 0x13, 0x3c,
    0x3a, 0x7f, 0x53, 0xbb, 0x1d, 0xef, 0xbd, 0xbc, 0x35, 0xf9,
    0x77, 0xba, 0xa7, 0xf0, 0x96, 0x3c, 0x9c, 0x5e, 0xb3, 0xbc,
    0x8b, 0x0b, 0x46, 0xbb, 0x29, 0xc2, 0x1b, 0xbc, 0x91, 0xa1,
    0xd8, 0xbc, 0xa4, 0x89, 0x81, 0x3b, 0x9c, 0xb6, 0x72, 0x3c,
    0xde, 0x17, 0x78, 0xbc, 0x7d, 0x88, 0x66, 0xbc, 0x51, 0x39,
    0x0a, 0x3b, 0xde, 0xeb, 0x29, 0x3c, 0x7b, 0x1e, 0x77, 0x3c,
    0xb8, 0x65, 0x8f, 0x3c, 0x88, 0x4c, 0x08, 0x3d, 0x32, 0xdb,
    0x63, 0xbc, 0x20, 0xb3, 0xce, 0xbc, 0xec, 0x52, 0x16, 0xbc,
    0x16, 0x28, 0xb6, 0xba, 0xaf, 0xfa, 0x14, 0x3b, 0x32, 0xe2,
    0xa8, 0x3c, 0xd0, 0x7b, 0xd5, 0xbc, 0x9c, 0xa0, 0x1f, 0x3b,
    0xe8, 0xa0, 0x60, 0x3c, 0x2d, 0x08, 0x8f, 0x3c, 0x41, 0x01,
    0xe3, 0x3b, 0x4d, 0x62, 0x50, 0xbc, 0xaa, 0xc8, 0x07, 0xbd,
    0x44, 0x3d, 0x9f, 0xbc, 0x92, 0x05, 0x59, 0x3c, 0x54, 0xbf,
    0x6c, 0xbc, 0xc7, 0x29, 0xf1, 0xbc, 0xe4, 0xe0, 0x46, 0x3c,
    0xad, 0x0e, 0xed, 0xbc, 0x09, 0x2a, 0x74, 0xbb, 0xcc, 0x55,
    0x02, 0xbd, 0xa8, 0x76, 0xd9, 0x3b, 0x92, 0x57, 0xed, 0xbc,
    0xbc, 0xb2, 0x4a, 0x3c, 0xc7, 0x49, 0x92, 0xbc, 0x73, 0x4d,
    0xc4, 0x3b, 0x07, 0xd6, 0x9c, 0x3c, 0xcf, 0xcd, 0x9a, 0xbc,
    0x2b, 0x65, 0x6f, 0xb9, 0xe4, 0xcf, 0xb3, 0xbc, 0xf6, 0x98,
    0x60, 0xbc, 0xb7, 0x73, 0xa2, 0x3c, 0x6d, 0xcd, 0x86, 0xbb,
    0xab, 0xdd, 0x94, 0xbc, 0x93, 0x18, 0x92, 0x3b, 0x60, 0x75,
    0xc7, 0xbc, 0xf6, 0xba, 0xdd, 0xbc, 0xab, 0xc3, 0xa9, 0xba,
    0x89, 0x5b, 0xa9, 0x3b, 0x76, 0xd4, 0xe1, 0x3b, 0x06, 0x4a,
    0x00, 0xbd, 0xf5, 0x0e, 0x88, 0x3b, 0x7b, 0x8c, 0xf7, 0xbc,
    0xd7, 0xdb, 0xbf, 0x3c, 0x3f, 0xca, 0x85, 0x3c, 0xeb, 0x09,
    0x26, 0x3c, 0x6c, 0x7d, 0x78, 0xbc, 0xaf, 0x88, 0x34, 0xbb,
    0xe1, 0xc0, 0x83, 0x3c, 0x1b, 0xc7, 0xd2, 0xbc, 0x5d, 0xd1,
    0xe3, 0xbc, 0xf5, 0xa1, 0xea, 0x3c, 0xe5, 0x7a, 0x81, 0x3c,
    0x01, 0x6c, 0x32, 0xba, 0x94, 0x41, 0xe7, 0x3c, 0x54, 0xda,
    0x9f, 0xbc, 0xe7, 0x2c, 0x32, 0x3c, 0xe6, 0x1f, 0xef, 0x3c,
    0xf0, 0xdd, 0xaa, 0xbb, 0xba, 0x59, 0x69, 0x3c, 0x5b, 0x5c,
    0x7d, 0xbb, 0xc2, 0x6b, 0x28, 0x3c, 0xe1, 0x3b, 0x9c, 0x3c,
    0x75, 0x3e, 0x6f, 0xbc, 0xe3, 0xf7, 0x58, 0x3c, 0x6f, 0x32,
    0xcb, 0xbc, 0x61, 0x20, 0xbb, 0x3c, 0x51, 0xd2, 0x05, 0x3c,
    0xe3, 0x1e, 0xed, 0x3c, 0xff, 0x26, 0x89, 0xbc, 0x61, 0x5e,
    0x96, 0xbc, 0x20, 0x68, 0x5f, 0xbc, 0x7f, 0xce, 0xe2, 0x3c,
    0xe1, 0x05, 0x81, 0xbc, 0x6c, 0x13, 0x19, 0x3c, 0xf5, 0xbe,
    0xa7, 0xbc, 0xc7, 0x42, 0x08, 0xbd, 0xc0, 0xd4, 0x81, 0xbd,
    0x93, 0xef, 0x86, 0x3c, 0xc8, 0x7c, 0xb2, 0xbc, 0x89, 0x9f,
    0x7f, 0x3b, 0xb5, 0x87, 0xc3, 0xbc, 0x19, 0x36, 0x16, 0xbb,
    0x90, 0x7a, 0x16, 0xbc, 0xd1, 0xd5, 0x7e, 0xbc, 0x8c, 0x36,
    0x99, 0xbb, 0x67, 0xd0, 0x06, 0xbd, 0x8a, 0xa6, 0x59, 0xbd,
    0xed, 0x90, 0x08, 0x3d, 0x1d, 0xd1, 0x15, 0x3b, 0x7b, 0x5a,
    0x94, 0xbc, 0xe4, 0x2b, 0x97, 0xbc, 0xb5, 0x04, 0xb4, 0xbc,
    0x85, 0x64, 0x5f, 0xbc, 0x52, 0x9e, 0x0a, 0x3b, 0x87, 0x01,
    0xf5, 0xbc, 0x86, 0x58, 0x45, 0x3c, 0x54, 0x7c, 0x6a, 0xbc,
    0xa3, 0x85, 0xa8, 0xbc, 0xa5, 0xeb, 0x8a, 0xbb, 0x00, 0xfe,
    0xe0, 0xba, 0x1c, 0x28, 0x7e, 0x3c, 0xbb, 0x6b, 0x67, 0xbc,
    0x30, 0xda, 0xd0, 0xbc, 0x22, 0x83, 0xf7, 0x3b, 0xe9, 0xf2,
    0x60, 0xbc, 0x89, 0x25, 0xb4, 0xb9, 0xc1, 0x7b, 0x24, 0x3c,
    0x75, 0x39, 0x08, 0xbc, 0xae, 0x4c, 0xd4, 0xbc, 0xec, 0x8a,
    0x22, 0x3d, 0x0a, 0x8b, 0xa2, 0x3c, 0x29, 0x03, 0x1c, 0x3c,
    0xd6, 0x5f, 0xe0, 0x3c, 0x19, 0x74, 0xa0, 0x3c, 0xdd, 0xec,
    0x9a, 0xbc, 0xdf, 0x37, 0x1a, 0x3c, 0x9c, 0x2c, 0x9a, 0x3c,
    0x95, 0xc6, 0xbf, 0xbc, 0x4a, 0xb0, 0xad, 0x3a, 0x86, 0x2d,
    0x66, 0x3c, 0x20, 0x87, 0x3e, 0x3c, 0x52, 0xd7, 0x6e, 0xbc,
    0x04, 0xb4, 0x89, 0x3b, 0x97, 0x3b, 0x97, 0xbc, 0xd8, 0xad,
    0x25, 0xbd, 0x66, 0x5d, 0x4a, 0x3c, 0x72, 0xe7, 0xa8, 0x3c,
    0xbe, 0x47, 0x99, 0x3b, 0xe0, 0xac, 0xd9, 0x3c, 0x72, 0x60,
    0xf7, 0xbc, 0x25, 0x86, 0x9b, 0x3c, 0x7d, 0xc0, 0x22, 0xb8,
    0x72, 0x63, 0x2e, 0xbb, 0xbd, 0x19, 0x4c, 0x3c, 0x70, 0xfe,
    0x00, 0x3c, 0x7f, 0x95, 0x96, 0xbc, 0xfd, 0xb5, 0xb9, 0xbc,
    0x7a, 0x3b, 0x2b, 0x3b, 0xc4, 0xcf, 0x16, 0x3c, 0x2c, 0x9d,
    0xa7, 0x3c, 0x49, 0xfd, 0xb9, 0xbc, 0x79, 0x2a, 0x0a, 0xbc,
    0x21, 0x21, 0x92, 0x3b, 0x63, 0x2b, 0xff, 0xbc, 0x14, 0xd8,
    0x54, 0x3c, 0x74, 0x99, 0x9a, 0xbc, 0x09, 0x0a, 0x8d, 0xbb,
    0xb2, 0xe7, 0x87, 0x3b, 0x5b, 0x49, 0x95, 0xbc, 0x47, 0x0f,
    0x20, 0xbc, 0xf7, 0x2f, 0x47, 0x3c, 0xc0, 0xd9, 0x98, 0x3c,
    0x68, 0x0b, 0xf2, 0xba, 0x65, 0xc8, 0x0f, 0xbd, 0x7a, 0xdb,
    0x53, 0x3b, 0x19, 0x61, 0x3b, 0xbb, 0x01, 0xae, 0x0a, 0xbc,
    0x21, 0x18, 0xba, 0x3c, 0x81, 0x93, 0x09, 0x3d, 0x0b, 0xd8,
    0x28, 0x39, 0x96, 0x55, 0xab, 0xbc, 0xcd, 0x58, 0x86, 0x3a,
    0x4a, 0xd0, 0xbb, 0xbb, 0x90, 0x19, 0xf2, 0xbc, 0xdc, 0xaf,
    0x48, 0xbc, 0xee, 0xe0, 0x9f, 0xbc, 0x77, 0x32, 0x0c, 0xbd,
    0xcf, 0x02, 0x2b, 0xbc, 0xe1, 0x0b, 0x4f, 0xbc, 0x60, 0xb7,
    0x03, 0xbd, 0x45, 0xdc, 0x65, 0x39, 0xe9, 0x6e, 0x69, 0xbc,
    0x54, 0x44, 0x12, 0xbc, 0x85, 0x77, 0xf9, 0xbb, 0x08, 0x27,
    0xe7, 0x3a, 0x93, 0xfd, 0x9a, 0xbc, 0xc0, 0xf5, 0xf4, 0x3b,
    0xd1, 0xf3, 0x01, 0xbc, 0xa3, 0xf1, 0xbe, 0x3b, 0x12, 0x6d,
    0xe4, 0xbc, 0x40, 0x29, 0x09, 0xbc, 0x47, 0x5e, 0xa9, 0xbc,
    0x62, 0x32, 0xb1, 0x3b, 0xe9, 0xd9, 0x2f, 0x3c, 0x96, 0xe4,
    0x96, 0xbc, 0x31, 0xc8, 0xd8, 0x3c, 0xd6, 0xd7, 0xf7, 0x3c,
    0x2a, 0xeb, 0x61, 0x3b, 0x39, 0x57, 0x08, 0xbd, 0xb1, 0x01,
    0x7c, 0xbc, 0xc3, 0x4c, 0x18, 0x3c, 0xf4, 0xe7, 0x13, 0xba,
    0xa3, 0x1a, 0x03, 0xbc, 0xda, 0xad, 0xeb, 0xba, 0x15, 0xbe,
    0xd3, 0xbc, 0x27, 0x3e, 0x82, 0xbc, 0xd1, 0x2a, 0xe5, 0x3c,
    0x5f, 0xf8, 0x99, 0xbc, 0x43, 0x4c, 0x08, 0xbd, 0xf2, 0x0a,
    0x78, 0xbc, 0xf2, 0x1d, 0x1a, 0xbb, 0x28, 0xc8, 0x6c, 0xbc,
    0x87, 0x8f, 0x69, 0x3a, 0x28, 0x63, 0xe8, 0x3c, 0x62, 0x8e,
    0x18, 0xbc, 0xdf, 0xb7, 0xeb, 0x3c, 0xb4, 0xd2, 0xbb, 0xbb,
    0x94, 0xf1, 0x3d, 0xbc, 0x1f, 0xb9, 0x26, 0xbd, 0x98, 0x99,
    0x01, 0x3c, 0x0c, 0x6e, 0xa7, 0xbb, 0x07, 0x87, 0x11, 0x3d,
    0x18, 0x4c, 0x13, 0xba, 0x5e, 0x4d, 0xe2, 0xbc, 0x51, 0xf6,
    0x20, 0x3c, 0xa5, 0xea, 0xcb, 0x3c, 0x89, 0xb3, 0x55, 0x3c,
    0x0b, 0x87, 0xf3, 0x3b, 0x7e, 0x98, 0x75, 0xbb, 0x43, 0x06,
    0x91, 0x3a, 0xa3, 0x20, 0x0c, 0xbc, 0xb8, 0x43, 0x1c, 0xbc,
    0x86, 0x5e, 0x10, 0xbb, 0x4e, 0x6b, 0x82, 0xbc, 0x1d, 0x9b,
    0x14, 0x3d, 0xca, 0xed, 0xe4, 0xbc, 0xf0, 0x1c, 0xdb, 0xba,
    0x36, 0xb2, 0xd3, 0x3c, 0x99, 0xcc, 0xb1, 0x3c, 0x7d, 0x13,
    0xe6, 0xbb, 0xaa, 0x6b, 0xa2, 0xbc, 0x4c, 0xe8, 0x39, 0x3b,
    0xf6, 0xd3, 0xc3, 0x3c, 0xf0, 0x2a, 0x00, 0xbc, 0xbe, 0xc5,
    0x5e, 0xbb, 0xdd, 0x25, 0x2a, 0x3c, 0xbe, 0x8a, 0x87, 0x3c,
    0x90, 0xe2, 0xd0, 0x3c, 0xc5, 0x84, 0xe5, 0x3a, 0x13, 0x4e,
    0x4e, 0x3c, 0x57, 0xa6, 0xed, 0xbb, 0x5b, 0x21, 0x07, 0xbc,
    0x7a, 0xba, 0x42, 0x3c, 0xc7, 0x9e, 0xab, 0x3c, 0xda, 0xf1,
    0x8d, 0x3b, 0xa0, 0x41, 0x3d, 0x3c, 0x1e, 0xfd, 0x50, 0xbb,
    0xcb, 0xf0, 0x2e, 0x3c, 0x0e, 0x39, 0xce, 0xbc, 0x3e, 0x62,
    0x94, 0x3c, 0xef, 0xbb, 0x3e, 0x3c, 0x51, 0x48, 0xff, 0xba,
    0xcb, 0x9c, 0x5d, 0xba, 0xd0, 0x1e, 0xb6, 0xbc, 0x19, 0x45,
    0xa1, 0xbc, 0xf4, 0x28, 0x75, 0xbc, 0x68, 0x0a, 0x2c, 0x3b,
    0xd7, 0x39, 0xe4, 0xbc, 0x0c, 0xf5, 0x99, 0xbc, 0xe4, 0x78,
    0x23, 0xbc, 0x58, 0x66, 0x13, 0xbd, 0x05, 0x81, 0xd7, 0xbb,
    0xf5, 0xe8, 0x37, 0xbc, 0x32, 0x5c, 0x83, 0x3c, 0x06, 0x4b,
    0x12, 0xbd, 0x93, 0x56, 0xdd, 0xbc, 0xb9, 0xdb, 0x83, 0xbc,
    0x14, 0x6b, 0xde, 0xbc, 0xc4, 0x16, 0xbd, 0xbb, 0xce, 0x8b,
    0x07, 0x3c, 0x38, 0x64, 0x23, 0xbc, 0x0c, 0x84, 0x88, 0xbc,
    0xd4, 0x4f, 0x18, 0xbd, 0xfe, 0x2d, 0xcf, 0xbc, 0xff, 0x67,
    0xf1, 0xbc, 0xe3, 0x21, 0xea, 0xbc, 0x56, 0x0f, 0x2a, 0xbc,
    0x10, 0x42, 0xac, 0x39, 0x4a, 0x70, 0x1f, 0x3c, 0xfb, 0x4e,
    0x17, 0x3c, 0x6b, 0xab, 0x6f, 0xbc, 0x9b, 0xd5, 0x95, 0xba,
    0x88, 0xfe, 0xcf, 0xbb, 0xa6, 0x37, 0x19, 0xbd, 0x59, 0x59,
    0x37, 0xbc, 0xdd, 0x37, 0xe1, 0xbc, 0x6c, 0xa7, 0x51, 0xb9,
    0xe1, 0x36, 0x9e, 0xbc, 0x73, 0xfc, 0x4d, 0x3c, 0x5e, 0xff,
    0x47, 0x3c, 0x47, 0x39, 0x2e, 0x3b, 0x79, 0x90, 0xc9, 0xbc,
    0xa0, 0x27, 0x00, 0x3c, 0xdf, 0xb6, 0x41, 0x3c, 0x0f, 0xe2,
    0x86, 0xbc, 0xdd, 0xbc, 0xdc, 0xbc, 0x36, 0x9a, 0x19, 0xbd,
    0xc0, 0xc3, 0x06, 0xbd, 0x3b, 0xd3, 0x90, 0xba, 0x97, 0x08,
    0x92, 0x3c, 0x9f, 0xda, 0x93, 0x3b, 0x13, 0x11, 0xfa, 0x3c,
    0xc7, 0x0e, 0x02, 0xbd, 0x24, 0x21, 0x44, 0xbc, 0x30, 0x31,
    0xeb, 0xbc, 0x0f, 0x12, 0x2f, 0x3b, 0x3d, 0xbf, 0xb5, 0xbc,
    0xaf, 0x85, 0x8a, 0xbc, 0x7d, 0x58, 0xdf, 0xbc, 0xea, 0x86,
    0xef, 0xbb, 0x6e, 0x6d, 0xae, 0x3c, 0x04, 0xba, 0x53, 0xbc,
    0xe3, 0xc8, 0x02, 0x3d, 0x11, 0x70, 0xba, 0x3c, 0xc7, 0x7f,
    0x88, 0x3c, 0x27, 0x3d, 0x17, 0x3c, 0x1d, 0x40, 0x1f, 0x3c,
    0xe9, 0x6a, 0xd5, 0xbc, 0x13, 0x34, 0xb8, 0xbc, 0x2e, 0x86,
    0xd6, 0xbc, 0x67, 0xf3, 0x3c, 0x3c, 0x2f, 0x5a, 0xce, 0xb9,
    0x9b, 0x89, 0xae, 0xbc, 0x92, 0xfc, 0x2d, 0xbc, 0xad, 0xa5,
    0x99, 0xbc, 0x2d, 0x3e, 0xf6, 0xbc, 0x16, 0x7a, 0x60, 0x3c,
    0xd7, 0xdd, 0xa9, 0x3c, 0x35, 0x12, 0x7f, 0x3b, 0x24, 0x1d,
    0xb3, 0x3c, 0x1d, 0x6b, 0xd5, 0xbc, 0x33, 0x20, 0x6d, 0xbc,
    0x1d, 0xb3, 0xbd, 0xbc, 0xcb, 0x12, 0xdc, 0x3c, 0xdf, 0x98,
    0x55, 0xbc, 0x15, 0x07, 0x75, 0xbc, 0xae, 0xd7, 0xf1, 0x3c,
    0xe3, 0x1f, 0xe9, 0xbc, 0xf9, 0x23, 0xdf, 0xbc, 0x62, 0xb1,
    0xde, 0x3a, 0x21, 0x7e, 0x51, 0x3c, 0x00, 0x85, 0x03, 0xbd,
    0x0a, 0xd9, 0xf8, 0xbc, 0x43, 0xa2, 0x6a, 0xbc, 0x07, 0x56,
    0x53, 0xbb, 0x89, 0xec, 0x6a, 0x3c, 0x12, 0x3d, 0xeb, 0x3b,
    0x5a, 0xb4, 0x21, 0xbc, 0x5c, 0x7b, 0x24, 0xbd, 0xb0, 0x7a,
    0xd6, 0x3c, 0xad, 0xb8, 0x0e, 0xbc, 0x55, 0x0e, 0xcc, 0x3c,
    0x44, 0xe9, 0x01, 0x3c, 0xa1, 0x01, 0x09, 0xbc, 0xf0, 0xb7,
    0x1e, 0x3b, 0xc1, 0x24, 0x30, 0x3b, 0xd7, 0xbe, 0x8d, 0xba,
    0x0a, 0x8f, 0x5d, 0xbc, 0x37, 0xb7, 0xa7, 0xbc, 0x75, 0xbd,
    0x05, 0x3c, 0xda, 0x82, 0xd4, 0xbc, 0x68, 0x9b, 0xcd, 0xbc,
    0xa8, 0x9f, 0x30, 0xbc, 0xdd, 0x3b, 0x85, 0x3b, 0x94, 0xe7,
    0xdd, 0xbc, 0xed, 0x9c, 0x86, 0x3c, 0x0c, 0xa0, 0x8c, 0xbc,
    0x05, 0x4a, 0x90, 0xbc, 0x7d, 0xcb, 0x8e, 0x3c, 0xa7, 0xb8,
    0x99, 0x3c, 0x02, 0x55, 0xb0, 0x3c, 0xa7, 0x80, 0xd8, 0x3b,
    0xed, 0xa9, 0x6c, 0xbc, 0x1f, 0xc5, 0x7a, 0x3b, 0x35, 0xf8,
    0x0a, 0x3c, 0xdb, 0x51, 0x0d, 0x3d, 0x30, 0x4d, 0xb2, 0x3c,
    0x2e, 0x31, 0x80, 0xbc, 0xe9, 0x2f, 0x2b, 0xbd, 0x68, 0x59,
    0x9b, 0x3c, 0xb1, 0xf3, 0x10, 0xbd, 0x5b, 0xe1, 0x35, 0xb7,
    0x7a, 0x87, 0xee, 0x3c, 0xd9, 0xec, 0xd7, 0xbb, 0xab, 0x84,
    0xa2, 0xbc, 0x96, 0xfc, 0x3b, 0x3c, 0xb7, 0xd4, 0xb2, 0xbc,
    0xfc, 0x3a, 0xb9, 0xbc, 0x78, 0xc6, 0x16, 0x3c, 0xde, 0x9d,
    0x9e, 0x3a, 0xc8, 0xfc, 0x4e, 0x3c, 0xab, 0x67, 0x86, 0xbb,
    0x0e, 0xca, 0xa4, 0x3c, 0x3e, 0xee, 0x38, 0xbd, 0x44, 0xb1,
    0x39, 0xbd, 0x45, 0x61, 0x0f, 0x3c, 0xb7, 0x58, 0x45, 0xbb,
    0x4e, 0xaf, 0xe0, 0xbc, 0x26, 0x6e, 0x56, 0x3c, 0xd9, 0x39,
    0x5f, 0x3b, 0x50, 0xa7, 0x52, 0xbb, 0x47, 0x6d, 0xe0, 0xbc,
    0xc4, 0x64, 0x06, 0xbc, 0xe1, 0x95, 0xb9, 0xbc, 0xf5, 0x5b,
    0x3a, 0xbc, 0xc2, 0xf3, 0x91, 0xbc, 0x10, 0x79, 0xb0, 0xbc,
    0xa4, 0xf9, 0xed, 0x3b, 0x06, 0xab, 0xf6, 0xbc, 0x2b, 0xaf,
    0xed, 0xbc, 0x17, 0x39, 0x2e, 0xbc, 0x7e, 0x17, 0x0d, 0xbd,
    0x15, 0x4d, 0x94, 0xbb, 0xd7, 0xba, 0x5c, 0xbc, 0x21, 0x6e,
    0xb0, 0x3c, 0x69, 0x53, 0xa9, 0x3b, 0x65, 0xdf, 0xcd, 0x3b,
    0xd4, 0x94, 0x20, 0x3b, 0x09, 0x84, 0xd8, 0x39, 0xae, 0xc8,
    0xa0, 0xbb, 0x55, 0xa9, 0xe9, 0xbc, 0x9a, 0xca, 0x4b, 0x3c,
    0x55, 0x1a, 0x2d, 0xbc, 0x42, 0x86, 0x3c, 0xba, 0x9b, 0xe5,
    0xb9, 0xbb, 0x72, 0x5d, 0xea, 0xbc, 0xd3, 0x85, 0x1f, 0xbb,
    0xcc, 0x96, 0xf0, 0xbb, 0x0b, 0x2d, 0x39, 0x3a, 0x3a, 0xbf,
    0xb8, 0xbc, 0xb1, 0x88, 0x8d, 0xbc, 0x62, 0x9c, 0x53, 0xbd,
    0x34, 0xfb, 0xa7, 0xbc, 0x5d, 0x69, 0x12, 0xbc, 0x8b, 0x31,
    0x3a, 0xbc, 0x40, 0x34, 0x07, 0xbd, 0xda, 0x14, 0xf3, 0xbb,
    0xab, 0xbf, 0xac, 0x3c, 0x1b, 0x98, 0xce, 0x3b, 0x60, 0xdd,
    0x37, 0x3c, 0x13, 0xac, 0xeb, 0x3c, 0xcd, 0x5b, 0xbe, 0xbc,
    0xe7, 0x2c, 0xb7, 0x3c, 0xc0, 0x90, 0x82, 0xbb, 0xb0, 0xa8,
    0x97, 0xbc, 0xe5, 0xc2, 0xbd, 0xba, 0xd4, 0x73, 0x0a, 0xbb,
    0xc3, 0x0c, 0xa8, 0xbc, 0x92, 0xc4, 0x6f, 0x3c, 0x4d, 0x85,
    0xa4, 0x3c, 0x20, 0x76, 0x49, 0xbc, 0x1b, 0x14, 0x93, 0xbc,
    0x66, 0x22, 0xea, 0x3a, 0x6a, 0x23, 0xde, 0xbc, 0x84, 0x0d,
    0xf0, 0xbb, 0x9d, 0xa0, 0x6d, 0x3b, 0xf8, 0x78, 0xe1, 0x3c,
    0xdf, 0xae, 0xe9, 0xbc, 0x56, 0xf2, 0x32, 0xbc, 0x08, 0x1b,
    0x4e, 0xbc, 0xcf, 0x87, 0x11, 0xbd, 0x0b, 0x6f, 0xb4, 0x3c,
    0x01, 0x69, 0x02, 0x3c, 0xb0, 0x25, 0x76, 0xbb, 0x6b, 0xdd,
    0xc1, 0xba, 0xa6, 0xfd, 0xbb, 0xba, 0x28, 0x85, 0x97, 0x3b,
    0xa3, 0xd8, 0xd3, 0xbb, 0x4e, 0x72, 0xbe, 0x3c, 0x7a, 0xf2,
    0x7b, 0xbc, 0x6e, 0x57, 0xac, 0xbc, 0x96, 0x56, 0x8d, 0xbb,
    0xb3, 0x0e, 0x6d, 0xbc, 0x6c, 0xc4, 0x87, 0x3a, 0x12, 0xe9,
    0x01, 0xbc, 0x75, 0x4f, 0xfc, 0xbc, 0xe7, 0xc9, 0x7c, 0xbb,
    0x3b, 0x65, 0xfd, 0xbb, 0x24, 0xe2, 0x84, 0x3c, 0x23, 0x34,
    0x31, 0xba, 0x0b, 0xc7, 0x07, 0x3b, 0xb5, 0xe7, 0x62, 0xbc,
    0x3b, 0x56, 0xf4, 0x3c, 0x8c, 0x6c, 0x35, 0x3c, 0x23, 0x2d,
    0xea, 0x3b, 0xfc, 0xa5, 0x54, 0x3b, 0x50, 0x2a, 0xfd, 0xbc,
    0x02, 0x4c, 0x94, 0xbc, 0x43, 0x9a, 0x13, 0xbd, 0x26, 0xfa,
    0x88, 0xbc, 0x4e, 0xda, 0x2a, 0xbc, 0x13, 0x89, 0x22, 0x3b,
    0xf2, 0x06, 0x97, 0xbc, 0x8b, 0x92, 0x9d, 0x3c, 0x52, 0xdf,
    0x04, 0x3c, 0x80, 0xce, 0x4d, 0x3b, 0x50, 0xf8, 0xe3, 0xbc,
    0xf9, 0xd9, 0x01, 0x3d, 0xb3, 0xc6, 0x2a, 0x3d, 0x7c, 0x81,
    0xd7, 0x3c, 0xbe, 0x2a, 0x5c, 0xbb, 0x80, 0x82, 0x32, 0x3c,
    0x33, 0xa8, 0xc3, 0xbc, 0x99, 0x86, 0xeb, 0xbc, 0xb9, 0xd1,
    0x6f, 0xbc, 0x7f, 0x7f, 0x86, 0x3b, 0x2a, 0xce, 0xc8, 0xba,
    0x9e, 0x62, 0xb7, 0x3c, 0x7f, 0xc1, 0xe6, 0x3c, 0x95, 0x6a,
    0x6a, 0xbc, 0x2d, 0xf2, 0xab, 0xbc, 0x6e, 0x28, 0x17, 0x3b,
    0x4d, 0xfc, 0xbe, 0xbc, 0xea, 0xa5, 0xf8, 0x3c, 0xe8, 0x49,
    0xbb, 0xb9, 0x75, 0x04, 0x0d, 0xbd, 0xfd, 0x54, 0xdf, 0x3c,
    0x4c, 0xe8, 0x8b, 0x3c, 0xba, 0xc0, 0x2d, 0xbc, 0xbb, 0x1a,
    0xb9, 0xbc, 0xb0, 0xe2, 0x71, 0xbc, 0xd9, 0xf1, 0x9d, 0x3b,
    0xb5, 0xf8, 0x8e, 0xbc, 0x69, 0x90, 0x1f, 0x3a, 0xf2, 0x43,
    0xb6, 0xbc, 0xd1, 0x8e, 0x59, 0x3c, 0x23, 0xb2, 0xae, 0x3b,
    0x84, 0xfd, 0xf4, 0x3b, 0x25, 0x39, 0x88, 0xbb, 0xaa, 0x88,
    0x09, 0xbd, 0x09, 0xcb, 0xab, 0xbc, 0x7d, 0x48, 0xb2, 0xbc,
    0xa6, 0x3a, 0x09, 0xbd, 0x1b, 0x47, 0x98, 0xbc, 0x38, 0xac,
    0xd5, 0x3c, 0x91, 0xa3, 0x6c, 0xbc, 0x6f, 0x83, 0x4c, 0xbb,
    0xea, 0xc2, 0x0e, 0xbc, 0x5f, 0x32, 0x04, 0xbd, 0x37, 0x09,
    0x01, 0x3d, 0xb8, 0xfd, 0x83, 0xbc, 0x69, 0x78, 0xaa, 0xbc,
    0x9d, 0xb2, 0x35, 0x3b, 0x5c, 0x66, 0xf3, 0x3b, 0xec, 0xc8,
    0xb4, 0xba, 0xfc, 0x34, 0x17, 0xbc, 0xd8, 0xa1, 0x04, 0xbc,
    0x39, 0x4b, 0x3e, 0xbc, 0xa8, 0x63, 0x2f, 0x3d, 0x76, 0x75,
    0x0e, 0x3d, 0x3b, 0x44, 0x9b, 0xbc, 0x61, 0x3d, 0x2b, 0xbc,
    0xf8, 0xbc, 0x68, 0x3c, 0xa9, 0x39, 0xd3, 0xbb, 0xb4, 0x26,
    0xdd, 0x3c, 0x12, 0xeb, 0x99, 0x3c, 0xe9, 0x09, 0xe2, 0x3b,
    0x1e, 0xf0, 0xff, 0x3b, 0x44, 0xa2, 0xed, 0xba, 0x8f, 0x31,
    0x77, 0x3c, 0xf0, 0xb8, 0xa7, 0xba, 0xd2, 0xb2, 0x8f, 0x3c,
    0xfa, 0xe7, 0x58, 0x3c, 0xaa, 0x3f, 0xbb, 0x3b, 0x44, 0x48,
    0x83, 0xbc, 0x86, 0xa2, 0xce, 0x3c, 0x42, 0x00, 0xc5, 0xbc,
    0x53, 0x95, 0x64, 0x3c, 0x85, 0x6f, 0xaf, 0xbb, 0xd1, 0xef,
    0xa6, 0x3c, 0x60, 0xe0, 0xa4, 0xbb, 0xb6, 0x9f, 0x2f, 0xbc,
    0x6f, 0x93, 0x8a, 0x3c, 0x89, 0xbf, 0x98, 0xbb, 0x44, 0x93,
    0x3c, 0xbc, 0x94, 0x78, 0xb3, 0xbc, 0x20, 0xad, 0xb0, 0xbc,
    0xb4, 0x4d, 0x40, 0x3d, 0xe0, 0xcc, 0xcd, 0xbb, 0x77, 0xb0,
    0x43, 0xbc, 0xa2, 0x22, 0x85, 0x3a, 0x5e, 0xac, 0x9f, 0xbc,
    0x35, 0x33, 0x42, 0xbd, 0xfa, 0x78, 0x91, 0x3c, 0x8d, 0x4a,
    0x49, 0xbc, 0x88, 0xfc, 0x95, 0x3c, 0xb3, 0xe0, 0xe5, 0x3c,
    0x1c, 0x8d, 0x04, 0xbd, 0x35, 0x07, 0x59, 0xbd, 0x43, 0x75,
    0x06, 0xbc, 0xd2, 0x0e, 0x49, 0x3c, 0x4b, 0xa5, 0xfe, 0xbc,
